/* Generated by Edge Impulse
 *
 * Permission is hereby granted, free of charge, to any person obtaining a copy
 * of this software and associated documentation files (the "Software"), to deal
 * in the Software without restriction, including without limitation the rights
 * to use, copy, modify, merge, publish, distribute, sublicense, and/or sell
 * copies of the Software, and to permit persons to whom the Software is
 * furnished to do so, subject to the following conditions:
 *
 * The above copyright notice and this permission notice shall be included in
 * all copies or substantial portions of the Software.
 *
 * THE SOFTWARE IS PROVIDED "AS IS", WITHOUT WARRANTY OF ANY KIND, EXPRESS OR
 * IMPLIED, INCLUDING BUT NOT LIMITED TO THE WARRANTIES OF MERCHANTABILITY,
 * FITNESS FOR A PARTICULAR PURPOSE AND NONINFRINGEMENT. IN NO EVENT SHALL THE
 * AUTHORS OR COPYRIGHT HOLDERS BE LIABLE FOR ANY CLAIM, DAMAGES OR OTHER
 * LIABILITY, WHETHER IN AN ACTION OF CONTRACT, TORT OR OTHERWISE, ARISING FROM,
 * OUT OF OR IN CONNECTION WITH THE SOFTWARE OR THE USE OR OTHER DEALINGS IN THE
 * SOFTWARE.
 */

#ifndef _EI_CLASSIFIER_TFLITE_LEARN_14_H_
#define _EI_CLASSIFIER_TFLITE_LEARN_14_H_

#define EI_CLASSIFIER_TFLITE_LEARN_14_ARENA_SIZE     8089
const size_t tflite_learn_14_arena_size = 8089;

#ifdef EI_CLASSIFIER_TFLITE_ARENA_SIZE
#if EI_CLASSIFIER_TFLITE_ARENA_SIZE < EI_CLASSIFIER_TFLITE_LEARN_14_ARENA_SIZE
#undef EI_CLASSIFIER_TFLITE_ARENA_SIZE
#define EI_CLASSIFIER_TFLITE_ARENA_SIZE EI_CLASSIFIER_TFLITE_LEARN_14_ARENA_SIZE
#endif // #if EI_CLASSIFIER_TFLITE_ARENA_SIZE < EI_CLASSIFIER_TFLITE_LEARN_14_ARENA_SIZE
#else
#define EI_CLASSIFIER_TFLITE_ARENA_SIZE EI_CLASSIFIER_TFLITE_LEARN_14_ARENA_SIZE
#endif // #ifdef EI_CLASSIFIER_TFLITE_ARENA_SIZE

#if defined __GNUC__
#define ALIGN(X) __attribute__((aligned(X)))
#elif defined _MSC_VER
#define ALIGN(X) __declspec(align(X))
#elif defined __TASKING__
#define ALIGN(X) __align(X)
#else
#define ALIGN(X)
#endif

ALIGN(16) const unsigned char tflite_learn_14[] = {
  0x20, 0x00, 0x00, 0x00, 0x54, 0x46, 0x4c, 0x33, 0x00, 0x00, 0x00, 0x00,
  0x14, 0x00, 0x20, 0x00, 0x1c, 0x00, 0x18, 0x00, 0x14, 0x00, 0x10, 0x00,
  0x0c, 0x00, 0x00, 0x00, 0x08, 0x00, 0x04, 0x00, 0x14, 0x00, 0x00, 0x00,
  0x1c, 0x00, 0x00, 0x00, 0x8c, 0x00, 0x00, 0x00, 0xe4, 0x00, 0x00, 0x00,
  0x24, 0x12, 0x00, 0x00, 0x34, 0x12, 0x00, 0x00, 0x34, 0x2a, 0x00, 0x00,
  0x03, 0x00, 0x00, 0x00, 0x01, 0x00, 0x00, 0x00, 0x10, 0x00, 0x00, 0x00,
  0x00, 0x00, 0x0a, 0x00, 0x10, 0x00, 0x0c, 0x00, 0x08, 0x00, 0x04, 0x00,
  0x0a, 0x00, 0x00, 0x00, 0x0c, 0x00, 0x00, 0x00, 0x1c, 0x00, 0x00, 0x00,
  0x3c, 0x00, 0x00, 0x00, 0x0f, 0x00, 0x00, 0x00, 0x73, 0x65, 0x72, 0x76,
  0x69, 0x6e, 0x67, 0x5f, 0x64, 0x65, 0x66, 0x61, 0x75, 0x6c, 0x74, 0x00,
  0x01, 0x00, 0x00, 0x00, 0x04, 0x00, 0x00, 0x00, 0x9c, 0xff, 0xff, 0xff,
  0x1e, 0x00, 0x00, 0x00, 0x04, 0x00, 0x00, 0x00, 0x08, 0x00, 0x00, 0x00,
  0x6f, 0x75, 0x74, 0x70, 0x75, 0x74, 0x5f, 0x30, 0x00, 0x00, 0x00, 0x00,
  0x01, 0x00, 0x00, 0x00, 0x04, 0x00, 0x00, 0x00, 0xa6, 0xed, 0xff, 0xff,
  0x04, 0x00, 0x00, 0x00, 0x01, 0x00, 0x00, 0x00, 0x78, 0x00, 0x00, 0x00,
  0x02, 0x00, 0x00, 0x00, 0x34, 0x00, 0x00, 0x00, 0x04, 0x00, 0x00, 0x00,
  0xdc, 0xff, 0xff, 0xff, 0x21, 0x00, 0x00, 0x00, 0x04, 0x00, 0x00, 0x00,
  0x13, 0x00, 0x00, 0x00, 0x43, 0x4f, 0x4e, 0x56, 0x45, 0x52, 0x53, 0x49,
  0x4f, 0x4e, 0x5f, 0x4d, 0x45, 0x54, 0x41, 0x44, 0x41, 0x54, 0x41, 0x00,
  0x08, 0x00, 0x0c, 0x00, 0x08, 0x00, 0x04, 0x00, 0x08, 0x00, 0x00, 0x00,
  0x20, 0x00, 0x00, 0x00, 0x04, 0x00, 0x00, 0x00, 0x13, 0x00, 0x00, 0x00,
  0x6d, 0x69, 0x6e, 0x5f, 0x72, 0x75, 0x6e, 0x74, 0x69, 0x6d, 0x65, 0x5f,
  0x76, 0x65, 0x72, 0x73, 0x69, 0x6f, 0x6e, 0x00, 0x22, 0x00, 0x00, 0x00,
  0x3c, 0x11, 0x00, 0x00, 0x34, 0x11, 0x00, 0x00, 0x14, 0x11, 0x00, 0x00,
  0xf4, 0x10, 0x00, 0x00, 0xd4, 0x10, 0x00, 0x00, 0xb4, 0x10, 0x00, 0x00,
  0x94, 0x10, 0x00, 0x00, 0x74, 0x10, 0x00, 0x00, 0x5c, 0x10, 0x00, 0x00,
  0x34, 0x10, 0x00, 0x00, 0x34, 0x0c, 0x00, 0x00, 0xc4, 0x0b, 0x00, 0x00,
  0x34, 0x07, 0x00, 0x00, 0xe4, 0x06, 0x00, 0x00, 0xd4, 0x03, 0x00, 0x00,
  0x84, 0x03, 0x00, 0x00, 0x04, 0x01, 0x00, 0x00, 0xfc, 0x00, 0x00, 0x00,
  0xf4, 0x00, 0x00, 0x00, 0xec, 0x00, 0x00, 0x00, 0xe4, 0x00, 0x00, 0x00,
  0xdc, 0x00, 0x00, 0x00, 0xd4, 0x00, 0x00, 0x00, 0xcc, 0x00, 0x00, 0x00,
  0xc4, 0x00, 0x00, 0x00, 0xbc, 0x00, 0x00, 0x00, 0xb4, 0x00, 0x00, 0x00,
  0xac, 0x00, 0x00, 0x00, 0xa4, 0x00, 0x00, 0x00, 0x9c, 0x00, 0x00, 0x00,
  0x94, 0x00, 0x00, 0x00, 0x8c, 0x00, 0x00, 0x00, 0x6c, 0x00, 0x00, 0x00,
  0x04, 0x00, 0x00, 0x00, 0x9e, 0xee, 0xff, 0xff, 0x04, 0x00, 0x00, 0x00,
  0x58, 0x00, 0x00, 0x00, 0x0c, 0x00, 0x00, 0x00, 0x08, 0x00, 0x0e, 0x00,
  0x08, 0x00, 0x04, 0x00, 0x08, 0x00, 0x00, 0x00, 0x10, 0x00, 0x00, 0x00,
  0x28, 0x00, 0x00, 0x00, 0x00, 0x00, 0x06, 0x00, 0x08, 0x00, 0x04, 0x00,
  0x06, 0x00, 0x00, 0x00, 0x04, 0x00, 0x00, 0x00, 0x01, 0x00, 0x00, 0x00,
  0xeb, 0x03, 0x00, 0x00, 0x00, 0x00, 0x0a, 0x00, 0x10, 0x00, 0x0c, 0x00,
  0x08, 0x00, 0x04, 0x00, 0x0a, 0x00, 0x00, 0x00, 0x03, 0x00, 0x00, 0x00,
  0x02, 0x00, 0x00, 0x00, 0x04, 0x00, 0x00, 0x00, 0x06, 0x00, 0x00, 0x00,
  0x32, 0x2e, 0x31, 0x31, 0x2e, 0x31, 0x00, 0x00, 0x02, 0xef, 0xff, 0xff,
  0x04, 0x00, 0x00, 0x00, 0x10, 0x00, 0x00, 0x00, 0x31, 0x2e, 0x31, 0x34,
  0x2e, 0x30, 0x00, 0x00, 0x00, 0x00, 0x00, 0x00, 0x00, 0x00, 0x00, 0x00,
  0x6c, 0xd8, 0xff, 0xff, 0x70, 0xd8, 0xff, 0xff, 0x74, 0xd8, 0xff, 0xff,
  0x78, 0xd8, 0xff, 0xff, 0x7c, 0xd8, 0xff, 0xff, 0x80, 0xd8, 0xff, 0xff,
  0x84, 0xd8, 0xff, 0xff, 0x88, 0xd8, 0xff, 0xff, 0x8c, 0xd8, 0xff, 0xff,
  0x90, 0xd8, 0xff, 0xff, 0x94, 0xd8, 0xff, 0xff, 0x98, 0xd8, 0xff, 0xff,
  0x9c, 0xd8, 0xff, 0xff, 0xa0, 0xd8, 0xff, 0xff, 0xa4, 0xd8, 0xff, 0xff,
  0x5a, 0xef, 0xff, 0xff, 0x04, 0x00, 0x00, 0x00, 0x70, 0x02, 0x00, 0x00,
  0x43, 0x30, 0xcd, 0x40, 0xc8, 0x7f, 0x5e, 0x86, 0xe8, 0x3e, 0x45, 0x2f,
  0xf6, 0x1b, 0x0c, 0xac, 0x5b, 0x09, 0x26, 0x2d, 0x10, 0xea, 0xea, 0x5d,
  0xe1, 0x10, 0x04, 0x3e, 0xf9, 0x5c, 0xb7, 0x47, 0xe8, 0x38, 0xf4, 0x5c,
  0xbf, 0x1a, 0x0d, 0xc5, 0x08, 0xf3, 0xd3, 0xfc, 0x06, 0x17, 0x16, 0x03,
  0x15, 0x0a, 0x15, 0x03, 0xc1, 0xf3, 0x10, 0xe9, 0x20, 0xfd, 0x1b, 0xfb,
  0x02, 0xf9, 0xe7, 0xec, 0x06, 0x11, 0x81, 0xed, 0xe6, 0x02, 0xe1, 0xeb,
  0x03, 0xf7, 0xfd, 0x23, 0x18, 0x11, 0xef, 0x34, 0x0b, 0x81, 0x2b, 0x5c,
  0x11, 0xa8, 0xe2, 0xd9, 0x0b, 0xdf, 0x57, 0xd9, 0x4c, 0x22, 0x92, 0x4e,
  0xf9, 0x90, 0xb8, 0xea, 0xf8, 0xfb, 0x38, 0x1c, 0xe0, 0x41, 0xdd, 0x98,
  0x19, 0xff, 0xd4, 0xc1, 0x09, 0xad, 0x17, 0x29, 0xc7, 0x8e, 0xec, 0x50,
  0x32, 0x54, 0xf5, 0x26, 0xf8, 0xe0, 0xf7, 0x00, 0x29, 0x0e, 0xea, 0x59,
  0x5b, 0xfd, 0x47, 0x1b, 0xcd, 0xa7, 0xd0, 0x2d, 0xba, 0x62, 0x10, 0x14,
  0x7f, 0xcb, 0xe7, 0x64, 0xe1, 0xfa, 0xc3, 0x44, 0x5c, 0xdd, 0x56, 0x0c,
  0xe9, 0xd2, 0x18, 0xf4, 0xfe, 0xb4, 0x07, 0xfe, 0xec, 0xe9, 0xd5, 0x07,
  0x26, 0x20, 0xd3, 0xbd, 0xf8, 0xf7, 0xf2, 0x45, 0x7f, 0x75, 0x3b, 0x64,
  0x3f, 0x41, 0x21, 0xa4, 0xc2, 0x38, 0x24, 0x38, 0x06, 0xe8, 0x04, 0x9b,
  0xba, 0xc0, 0xc8, 0xac, 0x22, 0x6d, 0xec, 0xc8, 0x8b, 0x0f, 0xeb, 0xa8,
  0xcc, 0xfa, 0x16, 0x09, 0xe3, 0xc1, 0x96, 0xf8, 0x0e, 0x57, 0x72, 0xa7,
  0x90, 0xb5, 0xdd, 0xae, 0x81, 0xf6, 0x13, 0xcc, 0x17, 0x2e, 0x59, 0x41,
  0x29, 0xf3, 0xfb, 0xa8, 0x96, 0xae, 0x2d, 0x12, 0x15, 0x0b, 0xeb, 0xf2,
  0xf1, 0x27, 0x17, 0xe0, 0xd5, 0x3e, 0xe0, 0x2b, 0x03, 0x22, 0x52, 0xd4,
  0xf6, 0xca, 0xbd, 0x16, 0x00, 0xd0, 0xff, 0xc8, 0x36, 0x07, 0x29, 0x7f,
  0xbb, 0xd8, 0xa0, 0xcb, 0xcd, 0x24, 0xd5, 0xea, 0xdb, 0x4c, 0x64, 0x13,
  0xaa, 0xe4, 0xf4, 0x43, 0xda, 0x13, 0xea, 0xe7, 0xe8, 0x20, 0x1c, 0x6e,
  0x43, 0xdf, 0xdc, 0xf6, 0x3a, 0xe1, 0xda, 0xe7, 0x1a, 0x2f, 0xf4, 0x18,
  0x33, 0x52, 0xf8, 0xe4, 0x08, 0xec, 0x60, 0x81, 0xa7, 0x19, 0xfd, 0x0b,
  0x0a, 0x0a, 0xbf, 0xf8, 0xee, 0xc6, 0xc3, 0x40, 0x54, 0xca, 0xc4, 0x0a,
  0x03, 0xfb, 0xbf, 0xe4, 0xf6, 0xeb, 0xc0, 0xdd, 0x3d, 0x5a, 0x00, 0xdd,
  0xe9, 0x29, 0x1a, 0x0a, 0xeb, 0x7f, 0x2c, 0xb1, 0xe1, 0x28, 0x52, 0xde,
  0x8d, 0x09, 0x2b, 0x81, 0x12, 0x37, 0x4a, 0xfe, 0xf6, 0xed, 0x03, 0xf2,
  0xde, 0xe6, 0x2d, 0x0b, 0xa7, 0xcf, 0xce, 0x51, 0x0a, 0x11, 0xeb, 0x2e,
  0x10, 0xf9, 0xe2, 0x01, 0x11, 0xc7, 0xe4, 0xc4, 0xd6, 0x05, 0x41, 0x41,
  0x02, 0xf5, 0xfb, 0xe0, 0x17, 0x06, 0x3c, 0xad, 0x21, 0x21, 0xe0, 0x81,
  0xd0, 0xfb, 0x1e, 0x32, 0xe1, 0x1f, 0xf2, 0x1e, 0xcc, 0x1c, 0x36, 0xe8,
  0xba, 0xe0, 0xd6, 0x1d, 0x32, 0x02, 0x02, 0xe1, 0x28, 0xf1, 0xe8, 0x38,
  0xc0, 0xd5, 0xe7, 0x06, 0x10, 0x0a, 0x39, 0xc8, 0x1d, 0xd0, 0xb1, 0x1d,
  0xfd, 0x11, 0xb2, 0xde, 0xe2, 0x1f, 0x08, 0x10, 0x13, 0x26, 0xe5, 0x97,
  0x22, 0x04, 0x1a, 0xe3, 0x13, 0xfc, 0x2d, 0xfd, 0x02, 0x0f, 0xf9, 0xf8,
  0x81, 0x33, 0xf3, 0xda, 0x1b, 0xd1, 0xf4, 0x17, 0x05, 0x01, 0xfe, 0x0b,
  0xf6, 0xf9, 0xc5, 0xf1, 0xf7, 0x3b, 0x7f, 0xfa, 0xd8, 0xd4, 0xd0, 0xff,
  0xf7, 0x2d, 0xf0, 0xa0, 0xce, 0xe7, 0x2e, 0x76, 0x39, 0xe0, 0xbb, 0xcf,
  0x24, 0x10, 0x32, 0xde, 0x96, 0x02, 0x02, 0x23, 0x23, 0x30, 0xc9, 0x08,
  0xde, 0xfd, 0x1b, 0x45, 0xf6, 0x05, 0x1d, 0xe2, 0x19, 0x30, 0x30, 0xcf,
  0xe6, 0xcb, 0x25, 0xce, 0x38, 0x0d, 0x3f, 0x32, 0xf1, 0x2a, 0xb9, 0xcd,
  0xe5, 0x1c, 0xc6, 0x1e, 0xe7, 0x78, 0x0e, 0x41, 0x77, 0x30, 0x7f, 0x41,
  0x41, 0x26, 0x50, 0x1d, 0x24, 0x3f, 0x7f, 0x12, 0xd9, 0xa4, 0x3c, 0xae,
  0x0b, 0xec, 0x47, 0x71, 0x00, 0x17, 0x03, 0x3a, 0xdd, 0xdc, 0xf4, 0x33,
  0x23, 0x0d, 0x0b, 0xf6, 0x2c, 0x23, 0x0d, 0xf4, 0x2e, 0xbc, 0xf1, 0xed,
  0xbe, 0xdd, 0x37, 0x22, 0xb4, 0x05, 0x2d, 0x23, 0x15, 0x7f, 0x1d, 0xc9,
  0xec, 0x00, 0xe4, 0xb8, 0x3a, 0x3f, 0x30, 0x0b, 0xcf, 0x10, 0x70, 0x4f,
  0x9a, 0xe7, 0xd5, 0xed, 0x28, 0x2f, 0x24, 0xff, 0xb1, 0xd8, 0x08, 0x4a,
  0x06, 0xbd, 0xf4, 0x2c, 0x18, 0xff, 0x52, 0x52, 0xe1, 0xd6, 0xe3, 0x22,
  0xd6, 0xf1, 0xff, 0xff, 0x04, 0x00, 0x00, 0x00, 0x40, 0x00, 0x00, 0x00,
  0xd3, 0xeb, 0xff, 0xff, 0xcb, 0xfc, 0xff, 0xff, 0x85, 0xe6, 0xff, 0xff,
  0x63, 0xee, 0xff, 0xff, 0x1f, 0xf5, 0xff, 0xff, 0xd5, 0xee, 0xff, 0xff,
  0x21, 0xf5, 0xff, 0xff, 0x55, 0xe9, 0xff, 0xff, 0xb8, 0xf8, 0xff, 0xff,
  0x98, 0x05, 0x00, 0x00, 0x99, 0xf7, 0xff, 0xff, 0x61, 0xfe, 0xff, 0xff,
  0x89, 0xea, 0xff, 0xff, 0x55, 0xef, 0xff, 0xff, 0x46, 0xf0, 0xff, 0xff,
  0x94, 0xe3, 0xff, 0xff, 0x22, 0xf2, 0xff, 0xff, 0x04, 0x00, 0x00, 0x00,
  0x00, 0x03, 0x00, 0x00, 0xdf, 0x07, 0xae, 0x0e, 0xc6, 0xaf, 0x94, 0x81,
  0xba, 0x2a, 0x88, 0xd9, 0xae, 0x8c, 0xc3, 0x8d, 0xf6, 0x0e, 0xdd, 0x0d,
  0xbf, 0xca, 0xc1, 0xa1, 0xc2, 0x16, 0xc7, 0xf2, 0xf1, 0x95, 0xa5, 0x8a,
  0xc3, 0x0b, 0xe2, 0x09, 0xc1, 0xab, 0xc9, 0x99, 0xc2, 0x14, 0xc8, 0xfd,
  0x1a, 0xbc, 0xb8, 0xa0, 0x0b, 0xdc, 0x2a, 0xd3, 0xd2, 0xf5, 0xed, 0x44,
  0xc2, 0xc1, 0xaa, 0x9e, 0x42, 0x36, 0x30, 0x39, 0xfe, 0x0c, 0x13, 0x9d,
  0xe9, 0x21, 0x42, 0x22, 0xa3, 0xed, 0x9b, 0xa1, 0x04, 0x1e, 0xff, 0xd8,
  0x05, 0x24, 0x01, 0xe8, 0xd8, 0x18, 0x26, 0x17, 0xdc, 0xfc, 0xa3, 0xd1,
  0xbb, 0x2b, 0x81, 0x91, 0xdd, 0x25, 0xe7, 0xb3, 0x19, 0x08, 0xea, 0x04,
  0x17, 0x9e, 0x1b, 0x72, 0x33, 0x20, 0x28, 0x5e, 0x9e, 0x3e, 0xce, 0x9e,
  0x01, 0xbd, 0xfd, 0xf8, 0x0a, 0xbc, 0xfb, 0xd8, 0xe2, 0x12, 0xed, 0x12,
  0xc3, 0x48, 0xa8, 0x81, 0x31, 0xb3, 0xc2, 0xc3, 0xfc, 0xa9, 0x31, 0x5b,
  0x0f, 0xc9, 0x30, 0xdc, 0x24, 0x05, 0x0c, 0x9f, 0x04, 0x34, 0xe0, 0x30,
  0xed, 0x8d, 0x99, 0x2a, 0x4b, 0xfe, 0xef, 0x0e, 0xe5, 0xfd, 0x04, 0xa8,
  0x0c, 0xd4, 0x1a, 0x9e, 0x46, 0xde, 0x25, 0xf0, 0x0c, 0xc5, 0xee, 0x16,
  0xb1, 0xa7, 0x00, 0xdf, 0xf0, 0xf3, 0x29, 0xd2, 0x20, 0xea, 0x31, 0x13,
  0x81, 0xa9, 0xef, 0x08, 0xfa, 0xf7, 0xea, 0xea, 0xb1, 0x33, 0xdf, 0x07,
  0xbd, 0xf8, 0xd6, 0xe6, 0x1d, 0xf4, 0xf0, 0xf5, 0x17, 0x2d, 0x2f, 0x01,
  0xcb, 0x4c, 0xc6, 0xf9, 0x91, 0xff, 0xaf, 0xf3, 0xfb, 0x18, 0x29, 0x02,
  0x29, 0x1f, 0xdc, 0xdf, 0x03, 0x24, 0xcd, 0x10, 0x81, 0xf3, 0xad, 0xe4,
  0x3f, 0xe7, 0x60, 0x15, 0xec, 0x25, 0x21, 0x2b, 0xef, 0x0a, 0xbf, 0x20,
  0x81, 0x01, 0xac, 0x09, 0xe7, 0x0b, 0xbf, 0xc8, 0xd4, 0x2f, 0x23, 0x0a,
  0x1a, 0xf7, 0xb9, 0xef, 0xe1, 0x0a, 0xc8, 0xf8, 0xd4, 0xf4, 0xe4, 0xe4,
  0xea, 0x2c, 0x03, 0xe1, 0x28, 0x44, 0xe8, 0x4c, 0x0a, 0xfe, 0xd0, 0x02,
  0x0a, 0x18, 0xee, 0x14, 0x04, 0x94, 0x27, 0x34, 0xdb, 0xfd, 0x36, 0x1b,
  0x05, 0xa6, 0x1b, 0xa8, 0xe6, 0xfc, 0x03, 0x01, 0xf7, 0x81, 0x0c, 0x1a,
  0xde, 0x01, 0x02, 0xf8, 0x06, 0x9f, 0x22, 0x96, 0xdb, 0xf7, 0xec, 0x0e,
  0x29, 0x93, 0xde, 0xf3, 0xfd, 0xfe, 0x0b, 0xf9, 0x09, 0xe4, 0x01, 0x8c,
  0x0b, 0xfa, 0x12, 0x42, 0xfb, 0x4f, 0x8f, 0x97, 0x08, 0x0b, 0xf1, 0xf4,
  0xfc, 0xff, 0x0b, 0x24, 0x47, 0x37, 0x2c, 0x2d, 0x14, 0x03, 0xc5, 0x9b,
  0x15, 0xf1, 0xd0, 0xe5, 0xb6, 0xd6, 0x02, 0xf8, 0x06, 0xf7, 0x40, 0x0c,
  0xf6, 0x03, 0xea, 0xcd, 0xc5, 0x04, 0xea, 0x31, 0x81, 0xac, 0xb5, 0xcd,
  0xef, 0xfb, 0x01, 0xfb, 0xa8, 0xda, 0x27, 0x34, 0xe2, 0xe7, 0xea, 0xfd,
  0xe3, 0xc0, 0xe9, 0xfe, 0xbd, 0xbc, 0xc9, 0xfa, 0xd8, 0xdd, 0x38, 0x3e,
  0xe4, 0xd1, 0xaf, 0xf8, 0xdf, 0x81, 0xf0, 0xbf, 0xd6, 0xc1, 0x34, 0xf7,
  0x14, 0xea, 0xd7, 0xc3, 0x0c, 0x1c, 0xa8, 0x09, 0xd5, 0xc8, 0xa7, 0xd4,
  0x23, 0xe8, 0x2c, 0x10, 0xeb, 0x8d, 0x06, 0x1f, 0xa3, 0x13, 0x1e, 0x3e,
  0xc3, 0xf1, 0xb1, 0xa4, 0x32, 0x2f, 0xaa, 0xa4, 0x29, 0xb2, 0xc4, 0x50,
  0xbd, 0x27, 0x2f, 0xe9, 0xd4, 0x09, 0x16, 0xcf, 0xd6, 0x44, 0xaf, 0x81,
  0x32, 0x93, 0xcb, 0x1d, 0xf7, 0x08, 0xe9, 0x8f, 0xce, 0x1d, 0x13, 0xe2,
  0xb8, 0x32, 0xa5, 0x23, 0xc4, 0xb8, 0x23, 0x2d, 0xc8, 0xe3, 0xfa, 0x13,
  0xe6, 0x81, 0xdd, 0xd7, 0xe5, 0xcb, 0xf4, 0x13, 0xec, 0xeb, 0x2b, 0x0e,
  0xe6, 0xe8, 0xf1, 0x3a, 0xe4, 0xae, 0xe6, 0xeb, 0xf6, 0xfb, 0x1b, 0x17,
  0x14, 0xdb, 0x31, 0x27, 0xfa, 0x03, 0x12, 0x26, 0x2e, 0xbd, 0xcb, 0xe8,
  0x11, 0xec, 0xf7, 0x0f, 0xa9, 0xfe, 0xac, 0x30, 0xd5, 0x97, 0xf2, 0x89,
  0xd9, 0x0a, 0xda, 0x2a, 0xfe, 0xb7, 0xc4, 0x03, 0xaa, 0xfb, 0xcb, 0x18,
  0xc6, 0x81, 0xcf, 0xcf, 0xfd, 0x28, 0xdf, 0x18, 0xde, 0xbc, 0xb5, 0xbd,
  0xa2, 0xfe, 0xd3, 0x02, 0xdc, 0x88, 0xb9, 0xd4, 0x12, 0xe8, 0xa2, 0xff,
  0xb6, 0xed, 0xde, 0xd4, 0xfc, 0x18, 0xf8, 0x21, 0xd6, 0xed, 0x1b, 0xf3,
  0xda, 0xe8, 0xec, 0x10, 0x81, 0x1b, 0xc4, 0xc0, 0x10, 0xf0, 0x09, 0x13,
  0xfb, 0xd6, 0x0b, 0x0e, 0x14, 0xcb, 0x26, 0xf2, 0xd1, 0x10, 0x0e, 0x2b,
  0xf8, 0xd2, 0xe0, 0xc4, 0x0d, 0xde, 0xb3, 0xee, 0x0f, 0xdf, 0xfd, 0xb6,
  0x1c, 0xe7, 0x0f, 0x3d, 0xda, 0x27, 0xf8, 0xf9, 0xce, 0xf8, 0xcd, 0xc1,
  0x1c, 0x2e, 0xed, 0x28, 0xb5, 0xc6, 0x9f, 0xd1, 0xe2, 0x17, 0x3e, 0x20,
  0x47, 0xd6, 0x81, 0xeb, 0x2f, 0x14, 0xb5, 0xcc, 0x29, 0xfc, 0xe3, 0x18,
  0x36, 0xc8, 0xe0, 0xbf, 0x04, 0xff, 0x08, 0x2b, 0x27, 0xc3, 0xd3, 0x96,
  0x33, 0x3f, 0x1d, 0x51, 0x05, 0xf6, 0x2d, 0xff, 0x0d, 0x1a, 0xfc, 0xd0,
  0x04, 0xfd, 0x2f, 0xe7, 0xc7, 0x0c, 0xe0, 0xba, 0x0e, 0xd3, 0xf5, 0x36,
  0x22, 0xfb, 0xab, 0xb9, 0x00, 0x0d, 0xce, 0xd1, 0xa6, 0x6d, 0xc0, 0xb3,
  0x35, 0x29, 0x6a, 0x30, 0x7f, 0x16, 0x16, 0x24, 0xe9, 0xe5, 0xce, 0xcc,
  0xe2, 0x56, 0xf9, 0xd8, 0x32, 0xcd, 0xf9, 0xd3, 0xeb, 0xe4, 0xf1, 0x2b,
  0xf5, 0x81, 0x14, 0xcd, 0x1f, 0xf5, 0x13, 0x17, 0xed, 0xa0, 0xfb, 0xf4,
  0xf5, 0xfb, 0x0f, 0xf3, 0x0c, 0x8f, 0x14, 0xb1, 0x1a, 0xfc, 0xfe, 0x04,
  0xea, 0x87, 0x1f, 0x0a, 0xb6, 0x02, 0x29, 0x40, 0xef, 0xa4, 0x2f, 0xa7,
  0xf0, 0x09, 0x00, 0xee, 0x2e, 0xf5, 0xff, 0xff, 0x04, 0x00, 0x00, 0x00,
  0x40, 0x00, 0x00, 0x00, 0x18, 0x05, 0x00, 0x00, 0x51, 0xfd, 0xff, 0xff,
  0x8c, 0xfa, 0xff, 0xff, 0xff, 0xf8, 0xff, 0xff, 0x5f, 0xfd, 0xff, 0xff,
  0xd1, 0xfa, 0xff, 0xff, 0xef, 0xfa, 0xff, 0xff, 0xe2, 0xfd, 0xff, 0xff,
  0x35, 0xfa, 0xff, 0xff, 0xef, 0xfa, 0xff, 0xff, 0x5d, 0xfc, 0xff, 0xff,
  0x6d, 0x01, 0x00, 0x00, 0x66, 0xf9, 0xff, 0xff, 0x57, 0xfe, 0xff, 0xff,
  0x92, 0xfd, 0xff, 0xff, 0x80, 0xfe, 0xff, 0xff, 0x7a, 0xf5, 0xff, 0xff,
  0x04, 0x00, 0x00, 0x00, 0x80, 0x04, 0x00, 0x00, 0xed, 0x86, 0xe2, 0xbc,
  0x09, 0xa7, 0x97, 0x11, 0xcf, 0x81, 0x9a, 0xbe, 0x2e, 0x4f, 0xe5, 0xd7,
  0xdb, 0x63, 0xe9, 0xa7, 0x10, 0xd1, 0xa0, 0x20, 0xef, 0x02, 0xe5, 0xcd,
  0xa6, 0x5a, 0x0f, 0x10, 0xda, 0x36, 0x0c, 0xa9, 0x2b, 0xc7, 0xcd, 0x3f,
  0xc3, 0x11, 0xf0, 0xda, 0x05, 0x05, 0xd9, 0x41, 0xfb, 0x2d, 0x15, 0xe6,
  0x2b, 0x18, 0x0c, 0xc6, 0x3f, 0xc6, 0x02, 0xce, 0xbc, 0x93, 0xa4, 0x31,
  0xad, 0x81, 0xc0, 0x0a, 0x3d, 0xd0, 0xe1, 0x05, 0x05, 0xa1, 0xe7, 0x0f,
  0xdb, 0x02, 0xce, 0xcb, 0xcb, 0xf2, 0xee, 0xd4, 0x2f, 0xc7, 0x00, 0x20,
  0xf8, 0xb8, 0xe5, 0xf3, 0xd2, 0x04, 0x8c, 0x30, 0x04, 0x16, 0xe5, 0xdd,
  0x02, 0xf8, 0x21, 0x0e, 0x1d, 0x0d, 0x26, 0xda, 0xf7, 0x12, 0xcf, 0x45,
  0xc7, 0x07, 0x81, 0xa0, 0xf6, 0x0c, 0x1a, 0xf7, 0xf6, 0x21, 0x01, 0xaf,
  0xc6, 0x0a, 0x17, 0x25, 0x87, 0x29, 0xd4, 0x8c, 0xfc, 0xe4, 0xfe, 0xf2,
  0xb2, 0x4f, 0x1b, 0xb3, 0x3f, 0xdc, 0x18, 0xfe, 0xe3, 0xee, 0xa5, 0xe1,
  0xb1, 0xb1, 0x5a, 0xd7, 0xde, 0x16, 0xe3, 0x3b, 0x1b, 0x00, 0xe2, 0xe6,
  0xbf, 0xad, 0x05, 0xe1, 0xdf, 0xbb, 0xd7, 0x30, 0xdc, 0x0d, 0xdf, 0xde,
  0x1e, 0x54, 0xdf, 0xf2, 0xd7, 0xf5, 0x0f, 0xcd, 0x41, 0xcf, 0x81, 0x14,
  0xe7, 0xad, 0xee, 0xc7, 0xac, 0x14, 0xc6, 0xe2, 0xf2, 0x17, 0xf7, 0xe6,
  0xf6, 0xcf, 0x08, 0x3a, 0xf0, 0xe0, 0xc7, 0xeb, 0xfb, 0xff, 0xbe, 0x26,
  0x0d, 0xf9, 0x18, 0xf6, 0xfd, 0x2b, 0xba, 0xe4, 0xe4, 0xaa, 0x81, 0x5e,
  0x08, 0xcf, 0xe3, 0xbf, 0xf1, 0xb9, 0x10, 0x25, 0xda, 0xf7, 0xea, 0x0c,
  0xfe, 0x06, 0xc0, 0xce, 0xc8, 0xf6, 0x15, 0xb3, 0xf0, 0xdc, 0x24, 0x2a,
  0xdd, 0xec, 0x81, 0x1c, 0x0e, 0xcb, 0xe2, 0xf3, 0xb9, 0xfc, 0x00, 0xcd,
  0x0b, 0xe0, 0x08, 0x1b, 0xd4, 0xf3, 0xd1, 0xf4, 0xfb, 0x0a, 0xf9, 0xd8,
  0xd5, 0xd8, 0x1a, 0xdb, 0x03, 0x1b, 0x03, 0xfa, 0x02, 0xee, 0xea, 0x05,
  0x57, 0xf4, 0x01, 0xca, 0xfc, 0xdb, 0x18, 0xd9, 0x0e, 0x35, 0xd2, 0xe4,
  0xd5, 0x1c, 0xd0, 0xf7, 0x2c, 0xd9, 0x4e, 0xcc, 0x2e, 0xdb, 0xd1, 0x15,
  0xda, 0x2f, 0xa2, 0xa5, 0xed, 0xff, 0xf2, 0xe4, 0xfa, 0x2a, 0xe2, 0xd7,
  0xd6, 0xb9, 0xb9, 0xe5, 0x06, 0x6e, 0xc1, 0xf0, 0x19, 0xda, 0xe1, 0xcc,
  0x13, 0x3d, 0x81, 0x03, 0xa7, 0xca, 0xee, 0x8a, 0xe8, 0xb5, 0xec, 0xf9,
  0xac, 0xe7, 0xe7, 0xee, 0x06, 0xd8, 0xfe, 0xcc, 0x6e, 0x0a, 0xf6, 0xa0,
  0xc9, 0xe6, 0x1b, 0xc2, 0xf0, 0xc2, 0xea, 0xe1, 0x40, 0xdc, 0xe7, 0xa0,
  0x45, 0x1d, 0x18, 0xf1, 0xdf, 0xe8, 0x14, 0xeb, 0xf9, 0x42, 0xaa, 0xfb,
  0xe5, 0x1c, 0x0d, 0x81, 0xc3, 0xe3, 0x10, 0xf9, 0xf2, 0x36, 0xc7, 0x3a,
  0x20, 0x10, 0x0c, 0xcf, 0x08, 0x9c, 0x4b, 0x81, 0xe7, 0xe0, 0xf8, 0x2d,
  0xbb, 0xb8, 0xfc, 0x42, 0xdc, 0xf3, 0xf3, 0xb5, 0xf5, 0xb2, 0xef, 0xd1,
  0xd8, 0xf7, 0xc9, 0x29, 0x0d, 0xc9, 0x19, 0xf0, 0xaa, 0xe8, 0xf6, 0xbc,
  0xf1, 0xed, 0xd7, 0x39, 0x11, 0xe5, 0xf8, 0x07, 0x46, 0xbd, 0xc2, 0x81,
  0xf7, 0x04, 0x0a, 0xd3, 0x5e, 0xe8, 0x17, 0x42, 0x29, 0x01, 0xf1, 0xfd,
  0x0d, 0xcf, 0xde, 0xf7, 0xf0, 0xfe, 0x11, 0xc5, 0x46, 0xd9, 0x18, 0x1c,
  0x15, 0xfc, 0xe5, 0x20, 0x2d, 0xc3, 0xf4, 0x3f, 0xdb, 0x0e, 0x14, 0xcd,
  0x01, 0x17, 0x6d, 0x18, 0x04, 0x02, 0xef, 0x0d, 0xea, 0xe8, 0xa3, 0xe1,
  0xd5, 0xa2, 0x35, 0xa4, 0x9d, 0x35, 0x22, 0xb4, 0x2d, 0xc3, 0x20, 0xd0,
  0xee, 0xe7, 0xcd, 0x96, 0xfa, 0xf8, 0x57, 0xe3, 0xcc, 0x23, 0x7f, 0xed,
  0x19, 0x24, 0x1b, 0x26, 0xee, 0xc5, 0x15, 0xf4, 0xe6, 0xbf, 0xf9, 0xe2,
  0xf8, 0x56, 0xb3, 0xef, 0xe4, 0xe1, 0x4d, 0xe7, 0xc4, 0x05, 0x2e, 0x0b,
  0xfb, 0x2e, 0xae, 0x0f, 0xb3, 0xc4, 0xad, 0xfc, 0x1b, 0x12, 0xf6, 0xa7,
  0x81, 0x10, 0x12, 0x07, 0xc1, 0xdc, 0xae, 0x34, 0xb2, 0xf8, 0xb4, 0xdf,
  0x5a, 0x25, 0xe8, 0xb5, 0xbf, 0xf9, 0xcd, 0xc9, 0x14, 0xcf, 0xa5, 0xe3,
  0xaa, 0x22, 0x88, 0xcf, 0xa7, 0xda, 0x09, 0xa7, 0x27, 0x32, 0xc2, 0xba,
  0xef, 0x11, 0xef, 0xd9, 0xe0, 0x02, 0xfa, 0x39, 0xd3, 0x11, 0x03, 0x01,
  0x30, 0xf6, 0xe7, 0xfb, 0x0a, 0x21, 0xde, 0xc8, 0xd1, 0x20, 0xcd, 0x18,
  0xf8, 0x0d, 0x22, 0xc6, 0xf0, 0x02, 0x14, 0x11, 0xf2, 0x0d, 0xbd, 0x02,
  0xe2, 0xf7, 0xc4, 0x0f, 0xff, 0x05, 0x2c, 0x81, 0xbb, 0xe0, 0x0e, 0x08,
  0xea, 0x00, 0xe8, 0x1b, 0xf6, 0xdc, 0xce, 0x07, 0xeb, 0x11, 0x1e, 0xe6,
  0x81, 0x0d, 0xd8, 0xce, 0x0d, 0x05, 0xed, 0xe0, 0x38, 0x05, 0x25, 0xae,
  0x0f, 0x30, 0x0a, 0xf4, 0xda, 0x16, 0xe7, 0x0e, 0xcb, 0xea, 0xf6, 0xb5,
  0xe6, 0xdc, 0xfc, 0xf7, 0xec, 0x04, 0xec, 0xf8, 0xe1, 0xba, 0x1e, 0xe6,
  0xf2, 0xfb, 0x63, 0xed, 0x7c, 0x1e, 0x32, 0x3b, 0x5b, 0x24, 0xda, 0xdf,
  0xcb, 0x9f, 0x2c, 0x42, 0xc3, 0xdc, 0xbe, 0x02, 0x54, 0xad, 0xfa, 0x22,
  0xcb, 0xe9, 0x99, 0xed, 0x01, 0x9c, 0x11, 0x2d, 0xa7, 0xac, 0x90, 0xf0,
  0xb6, 0xf4, 0x83, 0xdc, 0x99, 0x81, 0xa7, 0xfe, 0xe3, 0xf0, 0x0c, 0x20,
  0xd8, 0x81, 0x18, 0x1b, 0x14, 0xfa, 0xac, 0xdd, 0x40, 0xfa, 0xb5, 0x0a,
  0x91, 0x08, 0xe4, 0xd1, 0xf5, 0xe2, 0xed, 0x0f, 0x4d, 0xda, 0x24, 0xd2,
  0xe5, 0xed, 0x07, 0x13, 0x18, 0x1a, 0x9b, 0xd5, 0x05, 0x05, 0xf4, 0xe9,
  0xf7, 0x07, 0x10, 0x0a, 0xb4, 0xe2, 0x0a, 0x1f, 0xf3, 0x13, 0xe9, 0xaa,
  0xcc, 0xa4, 0x2b, 0x54, 0x0f, 0xde, 0x13, 0xff, 0xd7, 0x54, 0x1c, 0xf2,
  0xd6, 0x83, 0xd9, 0x16, 0xb9, 0xd8, 0xc7, 0xbc, 0xdf, 0xf1, 0x9e, 0xd8,
  0xa5, 0xae, 0xd9, 0xaf, 0xbb, 0xa7, 0xbc, 0x02, 0xe0, 0xe6, 0xe9, 0xcd,
  0xda, 0xdc, 0xa2, 0xe0, 0xd0, 0x3d, 0x19, 0x81, 0xf1, 0x4f, 0x0f, 0x0f,
  0x86, 0xde, 0x1b, 0xae, 0xc6, 0x37, 0xdc, 0xfe, 0x64, 0xd9, 0x01, 0x1a,
  0xe1, 0xbf, 0xfb, 0xc6, 0x87, 0xe3, 0x08, 0xf3, 0xb1, 0x33, 0xf4, 0x7f,
  0x2e, 0x12, 0xcd, 0xb0, 0x20, 0x89, 0x27, 0xd6, 0xa8, 0x1d, 0xdf, 0xd5,
  0xcc, 0xd3, 0xb7, 0x05, 0x0e, 0xf5, 0xd2, 0xd0, 0xf4, 0x45, 0xf8, 0xea,
  0x2a, 0x2a, 0xe7, 0xfe, 0xdb, 0xad, 0xd7, 0xdd, 0xbf, 0xcc, 0xaf, 0x44,
  0xe5, 0x1e, 0x22, 0x04, 0xe0, 0x28, 0xbe, 0x17, 0xf3, 0x81, 0xe5, 0xe6,
  0x01, 0xd5, 0x91, 0xf6, 0xd6, 0xee, 0x0f, 0xf8, 0x13, 0xff, 0xfc, 0x12,
  0x07, 0xac, 0xfb, 0x29, 0x21, 0x2d, 0xed, 0x0b, 0x2e, 0xe1, 0xf0, 0x01,
  0xef, 0xf8, 0xcc, 0xcc, 0x05, 0xe0, 0xd3, 0xdc, 0xb8, 0xb4, 0x10, 0xd4,
  0x29, 0x0f, 0x8d, 0x81, 0x3d, 0x27, 0x20, 0xcb, 0x0d, 0xe4, 0xfd, 0xf0,
  0x06, 0x2f, 0x37, 0xf2, 0xa6, 0xed, 0xc6, 0x02, 0x0b, 0xf9, 0x2a, 0xdc,
  0x47, 0xc0, 0x1f, 0xa7, 0x1e, 0x29, 0xc7, 0xfd, 0xef, 0xd1, 0x03, 0xd0,
  0xe0, 0xce, 0x49, 0xcf, 0x8b, 0x02, 0xad, 0xde, 0x00, 0xea, 0x1b, 0xff,
  0xfb, 0xd7, 0x19, 0xe5, 0xa5, 0xaf, 0x48, 0x20, 0xaf, 0x13, 0xe9, 0xb1,
  0x36, 0xbf, 0x08, 0x29, 0x0a, 0x97, 0x04, 0xcd, 0xdb, 0xc5, 0x43, 0x09,
  0x81, 0x4d, 0x83, 0xd4, 0x4b, 0xe0, 0xf6, 0xc3, 0xd7, 0xc9, 0xee, 0xf4,
  0xf7, 0x81, 0x05, 0x1e, 0xe7, 0x0e, 0xc9, 0x9e, 0xd8, 0xed, 0x0d, 0xd6,
  0x9d, 0xf6, 0x92, 0xcc, 0xdf, 0xc9, 0xf6, 0xc0, 0x3f, 0x1f, 0xde, 0xf5,
  0xe0, 0xe5, 0x3c, 0xef, 0xc7, 0xfb, 0xbe, 0xd3, 0x59, 0x26, 0xf7, 0xcc,
  0x31, 0xe9, 0xfa, 0x92, 0x15, 0x30, 0x31, 0xb2, 0xbd, 0xec, 0xfb, 0xf8,
  0xf7, 0x34, 0xf3, 0xd9, 0xf4, 0xdd, 0x07, 0xa1, 0xcf, 0xe4, 0x29, 0xe0,
  0xbe, 0xde, 0xd5, 0xdc, 0x33, 0x16, 0xd9, 0xf1, 0xc6, 0x09, 0xa6, 0xde,
  0x81, 0xe5, 0x44, 0xc5, 0xae, 0x49, 0xe4, 0xa1, 0x05, 0x24, 0x8e, 0x14,
  0x93, 0xe0, 0xd0, 0x86, 0xb2, 0x48, 0xfd, 0x17, 0xdd, 0x09, 0xf6, 0x0d,
  0x15, 0x81, 0x2a, 0x13, 0xe0, 0xfa, 0x1a, 0xfd, 0x04, 0xe5, 0x00, 0x14,
  0xde, 0x13, 0xe3, 0xee, 0x04, 0xd2, 0x12, 0x13, 0x05, 0xd8, 0xfd, 0xd3,
  0xbb, 0xe4, 0xde, 0x3e, 0xb9, 0xf1, 0xba, 0xff, 0x1c, 0xd7, 0x14, 0x14,
  0x06, 0xde, 0x0c, 0xd8, 0xb9, 0xc6, 0x04, 0x5e, 0x06, 0xfa, 0xff, 0xff,
  0x04, 0x00, 0x00, 0x00, 0x60, 0x00, 0x00, 0x00, 0x5d, 0xff, 0xff, 0xff,
  0x4d, 0x00, 0x00, 0x00, 0x5b, 0xf6, 0xff, 0xff, 0x50, 0x00, 0x00, 0x00,
  0x82, 0xfc, 0xff, 0xff, 0xf0, 0x00, 0x00, 0x00, 0x18, 0xfb, 0xff, 0xff,
  0xc7, 0x04, 0x00, 0x00, 0x4b, 0xff, 0xff, 0xff, 0x1d, 0xf7, 0xff, 0xff,
  0x6e, 0xf6, 0xff, 0xff, 0xb2, 0x06, 0x00, 0x00, 0x5f, 0xfa, 0xff, 0xff,
  0xd4, 0x05, 0x00, 0x00, 0x6d, 0xfb, 0xff, 0xff, 0x7f, 0xfe, 0xff, 0xff,
  0x09, 0xfd, 0xff, 0xff, 0x77, 0xfe, 0xff, 0xff, 0xec, 0xfb, 0xff, 0xff,
  0xca, 0xfc, 0xff, 0xff, 0xc2, 0x03, 0x00, 0x00, 0xe7, 0xff, 0xff, 0xff,
  0x43, 0x02, 0x00, 0x00, 0x11, 0xfd, 0xff, 0xff, 0x72, 0xfa, 0xff, 0xff,
  0x04, 0x00, 0x00, 0x00, 0xf0, 0x03, 0x00, 0x00, 0xf9, 0x0f, 0x13, 0x0e,
  0x09, 0x01, 0x29, 0xeb, 0x25, 0xd3, 0x04, 0x14, 0xf5, 0x11, 0x07, 0x11,
  0x00, 0x3c, 0x1d, 0xf2, 0xfa, 0xc9, 0xdb, 0xdc, 0xff, 0x0d, 0xe7, 0x1a,
  0xf8, 0x03, 0x1f, 0x06, 0x0b, 0xfa, 0xe3, 0x1e, 0xda, 0xd6, 0xe3, 0x0e,
  0xe7, 0x20, 0x25, 0xd7, 0x0f, 0xc9, 0xc7, 0x13, 0x1e, 0x0a, 0x0e, 0xf7,
  0xbe, 0xdc, 0x1c, 0x1b, 0x0e, 0x14, 0xf0, 0xf4, 0xe7, 0x09, 0xb5, 0x39,
  0xdf, 0xfc, 0x03, 0xd8, 0xf9, 0xec, 0x00, 0x1c, 0x19, 0xe8, 0x2b, 0x14,
  0xc2, 0xbb, 0x2f, 0xf3, 0x1e, 0xf3, 0xf1, 0xe2, 0x28, 0xfa, 0x03, 0x36,
  0x06, 0x27, 0xef, 0xfe, 0xfc, 0xf4, 0x0f, 0x0f, 0x29, 0x00, 0x32, 0xd3,
  0x0e, 0xe6, 0x23, 0xc5, 0xa6, 0x26, 0xe8, 0x9f, 0x1f, 0xad, 0xec, 0xf3,
  0xd2, 0x15, 0xcb, 0xe8, 0xc4, 0x00, 0xea, 0x22, 0xff, 0xad, 0xee, 0x5a,
  0x05, 0xd9, 0x12, 0xeb, 0xee, 0x1e, 0xc0, 0xad, 0x11, 0x98, 0xe6, 0xff,
  0xe2, 0x13, 0x18, 0xec, 0xd5, 0xf3, 0xc6, 0xb4, 0x3d, 0xf4, 0xcc, 0xfb,
  0x0f, 0xe8, 0xf2, 0xbb, 0xc6, 0x19, 0xd0, 0xf5, 0x13, 0xf5, 0x07, 0xeb,
  0xde, 0x0b, 0x09, 0x20, 0xff, 0xb1, 0xd3, 0x09, 0xcb, 0xf8, 0x02, 0xf7,
  0xe7, 0xf5, 0xfc, 0x05, 0xe8, 0x00, 0xdd, 0xf3, 0xd6, 0x09, 0x2d, 0x02,
  0xd9, 0xe8, 0xd7, 0xdc, 0xf9, 0xf2, 0x06, 0x0b, 0xda, 0xfb, 0x18, 0x15,
  0xe4, 0x07, 0x06, 0x13, 0xf3, 0x0c, 0x09, 0x16, 0xf8, 0x00, 0x1a, 0xe2,
  0xf6, 0x0f, 0xf9, 0x0c, 0x1c, 0xf4, 0xf8, 0x0c, 0xf9, 0xe0, 0x09, 0x34,
  0x20, 0x15, 0xe3, 0x18, 0xf5, 0xf6, 0x14, 0x0e, 0xd3, 0xd6, 0x15, 0xdb,
  0x1d, 0x35, 0xfa, 0xf9, 0x16, 0xc2, 0xcf, 0xf1, 0xf3, 0x0d, 0xff, 0x2f,
  0x20, 0x1c, 0xd9, 0x09, 0xe9, 0xfa, 0x23, 0x18, 0xcc, 0xd1, 0x16, 0xfe,
  0xe5, 0x23, 0x03, 0xb1, 0x2a, 0xd2, 0xe4, 0xe2, 0xd7, 0x0e, 0xb4, 0x2b,
  0x0a, 0x0b, 0xeb, 0xf4, 0xea, 0xe3, 0x0f, 0x1f, 0xde, 0x15, 0x2f, 0x10,
  0xdb, 0xe9, 0x16, 0xde, 0x0f, 0xca, 0xd8, 0xea, 0xdd, 0x07, 0xf9, 0xa4,
  0xdd, 0x27, 0xe7, 0xf3, 0x2c, 0x1b, 0xe1, 0x1a, 0xf7, 0xea, 0x04, 0x0d,
  0xf3, 0xd7, 0xe5, 0x02, 0x09, 0xf4, 0xe8, 0xda, 0xe9, 0xdc, 0x13, 0xe1,
  0xf3, 0x4c, 0xda, 0x08, 0x24, 0x0c, 0x03, 0xe5, 0x07, 0xf0, 0xe0, 0xd7,
  0xfc, 0xf0, 0xf0, 0x27, 0xd4, 0xfe, 0xd9, 0xa2, 0x0e, 0xd6, 0x0d, 0xea,
  0x20, 0x10, 0xf5, 0x30, 0x1f, 0xd9, 0x20, 0x1b, 0x29, 0xfa, 0xeb, 0x04,
  0xd0, 0x0f, 0xf5, 0xf9, 0x18, 0x30, 0x26, 0x21, 0xfe, 0xf0, 0xf6, 0xd8,
  0x17, 0x1a, 0xee, 0xef, 0xf1, 0xe5, 0x02, 0x30, 0x2f, 0x17, 0x00, 0xfd,
  0x37, 0xeb, 0xff, 0xec, 0x1e, 0x1c, 0x23, 0xef, 0xd6, 0xb7, 0xd1, 0xbc,
  0x1c, 0x12, 0xd8, 0x0f, 0xdf, 0xdb, 0xf1, 0x25, 0x11, 0x11, 0xe1, 0x06,
  0x01, 0xfc, 0xce, 0xf8, 0xe3, 0x00, 0x15, 0xcd, 0xe9, 0xff, 0xf5, 0x1b,
  0xfc, 0xf3, 0xe2, 0xfe, 0x08, 0x07, 0xe5, 0x1c, 0x32, 0x05, 0xdb, 0xd3,
  0x15, 0xd1, 0xde, 0x3f, 0xdd, 0x28, 0x37, 0xda, 0xfb, 0xc9, 0x05, 0x05,
  0xdb, 0xf1, 0xef, 0x1a, 0xfe, 0xb5, 0xf9, 0x16, 0xed, 0x2e, 0xd8, 0xff,
  0x6b, 0xc9, 0xdc, 0x08, 0x08, 0x04, 0x20, 0xfa, 0x2d, 0x07, 0xfb, 0xed,
  0x14, 0xf8, 0xe6, 0x23, 0xf3, 0xa8, 0xec, 0x05, 0xdb, 0x0b, 0x04, 0xf3,
  0x24, 0xef, 0x02, 0x12, 0x28, 0x26, 0x1c, 0xf9, 0x05, 0x1d, 0xf7, 0x26,
  0x9a, 0x22, 0xf9, 0x12, 0x02, 0xb1, 0x08, 0x28, 0xa0, 0x18, 0x25, 0x17,
  0xe9, 0xf9, 0x31, 0x9e, 0x49, 0xe2, 0x1a, 0x32, 0xcd, 0xd8, 0xc9, 0xf6,
  0xd3, 0x0f, 0x21, 0xef, 0x0c, 0x07, 0x00, 0x0b, 0xb7, 0xfe, 0xf4, 0x0a,
  0xff, 0xe4, 0xef, 0x01, 0xe0, 0x14, 0xd3, 0xe8, 0xd5, 0xe1, 0xea, 0xd8,
  0x1b, 0x12, 0x1e, 0x04, 0x10, 0x2c, 0x08, 0xcc, 0xe1, 0x10, 0x3a, 0xe9,
  0xbf, 0xc3, 0xcc, 0x1c, 0xec, 0x1a, 0xe1, 0x0b, 0xaa, 0xfd, 0xef, 0xd4,
  0xec, 0x34, 0xf2, 0x02, 0x2d, 0x26, 0x06, 0xf6, 0xdc, 0x12, 0x29, 0xf0,
  0xf4, 0x0c, 0xef, 0x3c, 0xdd, 0x2c, 0xff, 0x09, 0xb1, 0x04, 0xe0, 0xea,
  0x04, 0x15, 0xe2, 0xf2, 0x23, 0x47, 0xfc, 0x0e, 0xe3, 0xf3, 0x26, 0xe7,
  0x0d, 0xfb, 0xf1, 0x2a, 0x05, 0x0a, 0xc7, 0xfe, 0xe1, 0xf5, 0x0b, 0xe3,
  0x16, 0x01, 0x25, 0x18, 0x15, 0xfc, 0xdf, 0x0a, 0xea, 0xf7, 0x2b, 0xfa,
  0xc8, 0xf0, 0xfe, 0x52, 0x06, 0x13, 0xc9, 0xe1, 0xdb, 0x0e, 0xe8, 0xd1,
  0xe7, 0x19, 0x15, 0xe6, 0xe6, 0x1e, 0x24, 0xf1, 0x05, 0x1f, 0x18, 0xed,
  0xea, 0xda, 0xdc, 0x07, 0xe0, 0xd7, 0xf5, 0x0e, 0xe8, 0xe4, 0x12, 0xcc,
  0x09, 0xb4, 0x23, 0xc9, 0x3d, 0x15, 0xe7, 0xb6, 0xff, 0xc6, 0xe5, 0xf5,
  0xe0, 0xf2, 0xf5, 0x23, 0xc7, 0xcd, 0xec, 0x28, 0xde, 0x09, 0x21, 0xc5,
  0x3d, 0xcd, 0x11, 0x12, 0xb7, 0x16, 0xe6, 0xd9, 0x29, 0xca, 0xc5, 0xde,
  0x81, 0xeb, 0x41, 0x01, 0xf2, 0xfb, 0x2b, 0xe9, 0x0f, 0xfd, 0x1c, 0x02,
  0x19, 0xcb, 0xe6, 0xeb, 0xf9, 0x24, 0x22, 0xe3, 0x10, 0xf1, 0xed, 0xff,
  0xc3, 0x06, 0x1d, 0x0d, 0x17, 0xee, 0x26, 0x2b, 0x08, 0xef, 0x08, 0x00,
  0x09, 0xc5, 0x04, 0xe2, 0x12, 0x0b, 0x0e, 0xf0, 0x28, 0xf8, 0xf7, 0x16,
  0xd4, 0x16, 0xff, 0xe2, 0x05, 0xd2, 0x13, 0x34, 0xe0, 0x1d, 0x11, 0xe9,
  0xbd, 0xeb, 0xe5, 0xe0, 0x16, 0xff, 0xfd, 0xd3, 0x1a, 0xe6, 0xfb, 0x06,
  0xeb, 0xfd, 0x0f, 0x0c, 0x0c, 0x1e, 0x08, 0x20, 0xf9, 0xf2, 0x18, 0x1d,
  0xeb, 0xe9, 0xf5, 0x21, 0x06, 0x07, 0x35, 0xc1, 0xe0, 0xee, 0x0c, 0x1b,
  0xc7, 0xdb, 0x0a, 0x06, 0x43, 0x2a, 0x10, 0x43, 0xe4, 0x13, 0x31, 0xf9,
  0xf3, 0xe4, 0x26, 0x03, 0x19, 0xaa, 0x2b, 0x04, 0xe0, 0xf1, 0x0e, 0x2c,
  0xdb, 0x0d, 0x26, 0xe1, 0x27, 0x2c, 0x0c, 0x38, 0xd1, 0x41, 0x15, 0x03,
  0xf2, 0xe9, 0x3a, 0x06, 0xf1, 0x93, 0x19, 0x0d, 0xc8, 0x24, 0xf5, 0xd9,
  0x04, 0xef, 0xe6, 0xc1, 0x08, 0x44, 0x30, 0xba, 0x16, 0x13, 0xe8, 0x25,
  0xef, 0x05, 0xec, 0xfe, 0x15, 0x03, 0xea, 0x1d, 0xe8, 0x0a, 0x05, 0x03,
  0x28, 0x00, 0xf6, 0xe7, 0xfe, 0x0c, 0x05, 0x05, 0x19, 0x18, 0xd3, 0x08,
  0xf4, 0x04, 0xd2, 0xda, 0xf4, 0xe8, 0xc8, 0xf9, 0xb4, 0x02, 0xe8, 0xef,
  0x01, 0xed, 0x07, 0xd4, 0xf6, 0xfb, 0x0c, 0x17, 0x21, 0x14, 0xf9, 0x00,
  0x1d, 0xf4, 0xe2, 0xb9, 0x04, 0xeb, 0xd1, 0xff, 0xea, 0xfa, 0xc8, 0x09,
  0xfb, 0xba, 0x16, 0xf8, 0xee, 0x15, 0x28, 0x1a, 0x13, 0x14, 0x00, 0xfb,
  0x1b, 0x0f, 0xf1, 0xd1, 0x08, 0xeb, 0xe5, 0x18, 0xe4, 0xf4, 0x0f, 0x0f,
  0x0e, 0xe2, 0x19, 0xd3, 0x0b, 0x11, 0x11, 0x14, 0xfc, 0x12, 0xfa, 0xff,
  0x07, 0xee, 0xe8, 0xe7, 0xf8, 0xfb, 0xeb, 0xf9, 0xfc, 0x17, 0xee, 0x12,
  0x03, 0x0a, 0x1a, 0xd9, 0xce, 0xd6, 0xf9, 0xec, 0x31, 0x06, 0xdb, 0x22,
  0x11, 0x02, 0xef, 0xd9, 0x09, 0x20, 0xd1, 0x0f, 0x0c, 0x18, 0x0e, 0xce,
  0xf1, 0x2b, 0xf2, 0xe5, 0xfb, 0xd6, 0xf7, 0xda, 0x13, 0xfc, 0xaa, 0x1a,
  0x1f, 0x07, 0xe0, 0x11, 0xcc, 0x1f, 0xe5, 0xeb, 0x10, 0xf5, 0x26, 0x47,
  0x0e, 0x2d, 0xc9, 0x30, 0x02, 0x1b, 0xc9, 0x9c, 0x6e, 0xfe, 0xff, 0xff,
  0x04, 0x00, 0x00, 0x00, 0x18, 0x00, 0x00, 0x00, 0x21, 0x00, 0x00, 0x00,
  0x0e, 0x00, 0x00, 0x00, 0x91, 0x01, 0x00, 0x00, 0x0b, 0xfe, 0xff, 0xff,
  0xb0, 0xff, 0xff, 0xff, 0x8b, 0x00, 0x00, 0x00, 0x92, 0xfe, 0xff, 0xff,
  0x04, 0x00, 0x00, 0x00, 0x08, 0x00, 0x00, 0x00, 0xff, 0xff, 0xff, 0xff,
  0xa8, 0x00, 0x00, 0x00, 0xa6, 0xfe, 0xff, 0xff, 0x04, 0x00, 0x00, 0x00,
  0x10, 0x00, 0x00, 0x00, 0x01, 0x00, 0x00, 0x00, 0x0d, 0x00, 0x00, 0x00,
  0x01, 0x00, 0x00, 0x00, 0x18, 0x00, 0x00, 0x00, 0xc2, 0xfe, 0xff, 0xff,
  0x04, 0x00, 0x00, 0x00, 0x10, 0x00, 0x00, 0x00, 0x01, 0x00, 0x00, 0x00,
  0x01, 0x00, 0x00, 0x00, 0x0d, 0x00, 0x00, 0x00, 0x10, 0x00, 0x00, 0x00,
  0xde, 0xfe, 0xff, 0xff, 0x04, 0x00, 0x00, 0x00, 0x10, 0x00, 0x00, 0x00,
  0x01, 0x00, 0x00, 0x00, 0x19, 0x00, 0x00, 0x00, 0x01, 0x00, 0x00, 0x00,
  0x10, 0x00, 0x00, 0x00, 0xfa, 0xfe, 0xff, 0xff, 0x04, 0x00, 0x00, 0x00,
  0x10, 0x00, 0x00, 0x00, 0x01, 0x00, 0x00, 0x00, 0x01, 0x00, 0x00, 0x00,
  0x19, 0x00, 0x00, 0x00, 0x10, 0x00, 0x00, 0x00, 0x16, 0xff, 0xff, 0xff,
  0x04, 0x00, 0x00, 0x00, 0x10, 0x00, 0x00, 0x00, 0x01, 0x00, 0x00, 0x00,
  0x32, 0x00, 0x00, 0x00, 0x01, 0x00, 0x00, 0x00, 0x10, 0x00, 0x00, 0x00,
  0x32, 0xff, 0xff, 0xff, 0x04, 0x00, 0x00, 0x00, 0x10, 0x00, 0x00, 0x00,
  0x01, 0x00, 0x00, 0x00, 0x01, 0x00, 0x00, 0x00, 0x32, 0x00, 0x00, 0x00,
  0x0d, 0x00, 0x00, 0x00, 0x9c, 0xe8, 0xff, 0xff, 0xa0, 0xe8, 0xff, 0xff,
  0x0f, 0x00, 0x00, 0x00, 0x4d, 0x4c, 0x49, 0x52, 0x20, 0x43, 0x6f, 0x6e,
  0x76, 0x65, 0x72, 0x74, 0x65, 0x64, 0x2e, 0x00, 0x01, 0x00, 0x00, 0x00,
  0x14, 0x00, 0x00, 0x00, 0x00, 0x00, 0x0e, 0x00, 0x18, 0x00, 0x14, 0x00,
  0x10, 0x00, 0x0c, 0x00, 0x08, 0x00, 0x04, 0x00, 0x0e, 0x00, 0x00, 0x00,
  0x14, 0x00, 0x00, 0x00, 0x1c, 0x00, 0x00, 0x00, 0x50, 0x03, 0x00, 0x00,
  0x54, 0x03, 0x00, 0x00, 0x58, 0x03, 0x00, 0x00, 0x04, 0x00, 0x00, 0x00,
  0x6d, 0x61, 0x69, 0x6e, 0x00, 0x00, 0x00, 0x00, 0x0f, 0x00, 0x00, 0x00,
  0x14, 0x03, 0x00, 0x00, 0xb8, 0x02, 0x00, 0x00, 0x84, 0x02, 0x00, 0x00,
  0x34, 0x02, 0x00, 0x00, 0x10, 0x02, 0x00, 0x00, 0xcc, 0x01, 0x00, 0x00,
  0xa8, 0x01, 0x00, 0x00, 0x68, 0x01, 0x00, 0x00, 0x44, 0x01, 0x00, 0x00,
  0x00, 0x01, 0x00, 0x00, 0xdc, 0x00, 0x00, 0x00, 0x9c, 0x00, 0x00, 0x00,
  0x78, 0x00, 0x00, 0x00, 0x40, 0x00, 0x00, 0x00, 0x04, 0x00, 0x00, 0x00,
  0x8e, 0xfd, 0xff, 0xff, 0x1c, 0x00, 0x00, 0x00, 0x00, 0x00, 0x00, 0x09,
  0x1c, 0x00, 0x00, 0x00, 0x20, 0x00, 0x00, 0x00, 0x04, 0x00, 0x00, 0x00,
  0x00, 0x00, 0x06, 0x00, 0x08, 0x00, 0x04, 0x00, 0x06, 0x00, 0x00, 0x00,
  0x00, 0x00, 0x80, 0x3f, 0x01, 0x00, 0x00, 0x00, 0x1e, 0x00, 0x00, 0x00,
  0x01, 0x00, 0x00, 0x00, 0x1d, 0x00, 0x00, 0x00, 0xc6, 0xfd, 0xff, 0xff,
  0x14, 0x00, 0x00, 0x00, 0x00, 0x00, 0x00, 0x08, 0x10, 0x00, 0x00, 0x00,
  0x14, 0x00, 0x00, 0x00, 0x03, 0x00, 0x00, 0x00, 0x84, 0xe9, 0xff, 0xff,
  0x01, 0x00, 0x00, 0x00, 0x1d, 0x00, 0x00, 0x00, 0x03, 0x00, 0x00, 0x00,
  0x1c, 0x00, 0x00, 0x00, 0x09, 0x00, 0x00, 0x00, 0x08, 0x00, 0x00, 0x00,
  0x9e, 0xfd, 0xff, 0xff, 0x08, 0x00, 0x00, 0x00, 0x0c, 0x00, 0x00, 0x00,
  0x01, 0x00, 0x00, 0x00, 0x1c, 0x00, 0x00, 0x00, 0x02, 0x00, 0x00, 0x00,
  0x1b, 0x00, 0x00, 0x00, 0x07, 0x00, 0x00, 0x00, 0x1a, 0xfe, 0xff, 0xff,
  0x14, 0x00, 0x00, 0x00, 0x00, 0x00, 0x00, 0x05, 0x20, 0x00, 0x00, 0x00,
  0x24, 0x00, 0x00, 0x00, 0x02, 0x00, 0x00, 0x00, 0x86, 0xfe, 0xff, 0xff,
  0x02, 0x00, 0x00, 0x00, 0x01, 0x00, 0x00, 0x00, 0x02, 0x00, 0x00, 0x00,
  0x01, 0x00, 0x00, 0x00, 0x01, 0x00, 0x00, 0x00, 0x1b, 0x00, 0x00, 0x00,
  0x01, 0x00, 0x00, 0x00, 0x1a, 0x00, 0x00, 0x00, 0xfa, 0xfd, 0xff, 0xff,
  0x08, 0x00, 0x00, 0x00, 0x0c, 0x00, 0x00, 0x00, 0x01, 0x00, 0x00, 0x00,
  0x1a, 0x00, 0x00, 0x00, 0x02, 0x00, 0x00, 0x00, 0x19, 0x00, 0x00, 0x00,
  0x06, 0x00, 0x00, 0x00, 0x76, 0xfe, 0xff, 0xff, 0x14, 0x00, 0x00, 0x00,
  0x00, 0x00, 0x00, 0x01, 0x1c, 0x00, 0x00, 0x00, 0x20, 0x00, 0x00, 0x00,
  0x01, 0x00, 0x00, 0x00, 0x68, 0xfe, 0xff, 0xff, 0x00, 0x00, 0x00, 0x01,
  0x01, 0x00, 0x00, 0x00, 0x01, 0x00, 0x00, 0x00, 0x01, 0x00, 0x00, 0x00,
  0x19, 0x00, 0x00, 0x00, 0x03, 0x00, 0x00, 0x00, 0x18, 0x00, 0x00, 0x00,
  0x0b, 0x00, 0x00, 0x00, 0x0a, 0x00, 0x00, 0x00, 0x5a, 0xfe, 0xff, 0xff,
  0x08, 0x00, 0x00, 0x00, 0x0c, 0x00, 0x00, 0x00, 0x01, 0x00, 0x00, 0x00,
  0x18, 0x00, 0x00, 0x00, 0x02, 0x00, 0x00, 0x00, 0x17, 0x00, 0x00, 0x00,
  0x05, 0x00, 0x00, 0x00, 0xd6, 0xfe, 0xff, 0xff, 0x14, 0x00, 0x00, 0x00,
  0x00, 0x00, 0x00, 0x05, 0x20, 0x00, 0x00, 0x00, 0x24, 0x00, 0x00, 0x00,
  0x02, 0x00, 0x00, 0x00, 0x42, 0xff, 0xff, 0xff, 0x02, 0x00, 0x00, 0x00,
  0x01, 0x00, 0x00, 0x00, 0x02, 0x00, 0x00, 0x00, 0x01, 0x00, 0x00, 0x00,
  0x01, 0x00, 0x00, 0x00, 0x17, 0x00, 0x00, 0x00, 0x01, 0x00, 0x00, 0x00,
  0x16, 0x00, 0x00, 0x00, 0xb6, 0xfe, 0xff, 0xff, 0x08, 0x00, 0x00, 0x00,
  0x0c, 0x00, 0x00, 0x00, 0x01, 0x00, 0x00, 0x00, 0x16, 0x00, 0x00, 0x00,
  0x02, 0x00, 0x00, 0x00, 0x15, 0x00, 0x00, 0x00, 0x04, 0x00, 0x00, 0x00,
  0x32, 0xff, 0xff, 0xff, 0x14, 0x00, 0x00, 0x00, 0x00, 0x00, 0x00, 0x01,
  0x1c, 0x00, 0x00, 0x00, 0x20, 0x00, 0x00, 0x00, 0x01, 0x00, 0x00, 0x00,
  0x24, 0xff, 0xff, 0xff, 0x00, 0x00, 0x00, 0x01, 0x01, 0x00, 0x00, 0x00,
  0x01, 0x00, 0x00, 0x00, 0x01, 0x00, 0x00, 0x00, 0x15, 0x00, 0x00, 0x00,
  0x03, 0x00, 0x00, 0x00, 0x14, 0x00, 0x00, 0x00, 0x0d, 0x00, 0x00, 0x00,
  0x0c, 0x00, 0x00, 0x00, 0x16, 0xff, 0xff, 0xff, 0x08, 0x00, 0x00, 0x00,
  0x0c, 0x00, 0x00, 0x00, 0x01, 0x00, 0x00, 0x00, 0x14, 0x00, 0x00, 0x00,
  0x02, 0x00, 0x00, 0x00, 0x13, 0x00, 0x00, 0x00, 0x03, 0x00, 0x00, 0x00,
  0x92, 0xff, 0xff, 0xff, 0x24, 0x00, 0x00, 0x00, 0x00, 0x00, 0x00, 0x05,
  0x30, 0x00, 0x00, 0x00, 0x34, 0x00, 0x00, 0x00, 0x02, 0x00, 0x00, 0x00,
  0x00, 0x00, 0x0e, 0x00, 0x14, 0x00, 0x00, 0x00, 0x10, 0x00, 0x0c, 0x00,
  0x08, 0x00, 0x04, 0x00, 0x0e, 0x00, 0x00, 0x00, 0x02, 0x00, 0x00, 0x00,
  0x01, 0x00, 0x00, 0x00, 0x02, 0x00, 0x00, 0x00, 0x01, 0x00, 0x00, 0x00,
  0x01, 0x00, 0x00, 0x00, 0x13, 0x00, 0x00, 0x00, 0x01, 0x00, 0x00, 0x00,
  0x12, 0x00, 0x00, 0x00, 0x82, 0xff, 0xff, 0xff, 0x08, 0x00, 0x00, 0x00,
  0x0c, 0x00, 0x00, 0x00, 0x01, 0x00, 0x00, 0x00, 0x12, 0x00, 0x00, 0x00,
  0x02, 0x00, 0x00, 0x00, 0x11, 0x00, 0x00, 0x00, 0x02, 0x00, 0x00, 0x00,
  0x00, 0x00, 0x0e, 0x00, 0x18, 0x00, 0x14, 0x00, 0x10, 0x00, 0x0c, 0x00,
  0x0b, 0x00, 0x04, 0x00, 0x0e, 0x00, 0x00, 0x00, 0x20, 0x00, 0x00, 0x00,
  0x00, 0x00, 0x00, 0x01, 0x28, 0x00, 0x00, 0x00, 0x2c, 0x00, 0x00, 0x00,
  0x01, 0x00, 0x00, 0x00, 0x0c, 0x00, 0x10, 0x00, 0x00, 0x00, 0x0c, 0x00,
  0x08, 0x00, 0x07, 0x00, 0x0c, 0x00, 0x00, 0x00, 0x00, 0x00, 0x00, 0x01,
  0x01, 0x00, 0x00, 0x00, 0x01, 0x00, 0x00, 0x00, 0x01, 0x00, 0x00, 0x00,
  0x11, 0x00, 0x00, 0x00, 0x03, 0x00, 0x00, 0x00, 0x10, 0x00, 0x00, 0x00,
  0x0f, 0x00, 0x00, 0x00, 0x0e, 0x00, 0x00, 0x00, 0x00, 0x00, 0x0a, 0x00,
  0x0c, 0x00, 0x00, 0x00, 0x08, 0x00, 0x04, 0x00, 0x0a, 0x00, 0x00, 0x00,
  0x08, 0x00, 0x00, 0x00, 0x0c, 0x00, 0x00, 0x00, 0x01, 0x00, 0x00, 0x00,
  0x10, 0x00, 0x00, 0x00, 0x02, 0x00, 0x00, 0x00, 0x00, 0x00, 0x00, 0x00,
  0x01, 0x00, 0x00, 0x00, 0x01, 0x00, 0x00, 0x00, 0x1e, 0x00, 0x00, 0x00,
  0x01, 0x00, 0x00, 0x00, 0x00, 0x00, 0x00, 0x00, 0x1f, 0x00, 0x00, 0x00,
  0x10, 0x14, 0x00, 0x00, 0xa0, 0x13, 0x00, 0x00, 0x4c, 0x13, 0x00, 0x00,
  0xf4, 0x12, 0x00, 0x00, 0x9c, 0x12, 0x00, 0x00, 0x44, 0x12, 0x00, 0x00,
  0xec, 0x11, 0x00, 0x00, 0xa0, 0x11, 0x00, 0x00, 0x24, 0x11, 0x00, 0x00,
  0xb8, 0x10, 0x00, 0x00, 0x2c, 0x0f, 0x00, 0x00, 0xa0, 0x0d, 0x00, 0x00,
  0x74, 0x0c, 0x00, 0x00, 0x48, 0x0b, 0x00, 0x00, 0x1c, 0x0a, 0x00, 0x00,
  0xf0, 0x08, 0x00, 0x00, 0x6c, 0x08, 0x00, 0x00, 0x60, 0x07, 0x00, 0x00,
  0xdc, 0x06, 0x00, 0x00, 0x60, 0x06, 0x00, 0x00, 0xdc, 0x05, 0x00, 0x00,
  0xe0, 0x04, 0x00, 0x00, 0x5c, 0x04, 0x00, 0x00, 0xe0, 0x03, 0x00, 0x00,
  0x5c, 0x03, 0x00, 0x00, 0x60, 0x02, 0x00, 0x00, 0xdc, 0x01, 0x00, 0x00,
  0x60, 0x01, 0x00, 0x00, 0xf4, 0x00, 0x00, 0x00, 0x70, 0x00, 0x00, 0x00,
  0x04, 0x00, 0x00, 0x00, 0x82, 0xec, 0xff, 0xff, 0x00, 0x00, 0x00, 0x01,
  0x14, 0x00, 0x00, 0x00, 0x30, 0x00, 0x00, 0x00, 0x1f, 0x00, 0x00, 0x00,
  0x00, 0x00, 0x00, 0x09, 0x44, 0x00, 0x00, 0x00, 0x6c, 0xec, 0xff, 0xff,
  0x08, 0x00, 0x00, 0x00, 0x10, 0x00, 0x00, 0x00, 0x01, 0x00, 0x00, 0x00,
  0x80, 0xff, 0xff, 0xff, 0xff, 0xff, 0xff, 0xff, 0x01, 0x00, 0x00, 0x00,
  0x00, 0x00, 0x80, 0x3b, 0x19, 0x00, 0x00, 0x00, 0x53, 0x74, 0x61, 0x74,
  0x65, 0x66, 0x75, 0x6c, 0x50, 0x61, 0x72, 0x74, 0x69, 0x74, 0x69, 0x6f,
  0x6e, 0x65, 0x64, 0x43, 0x61, 0x6c, 0x6c, 0x3a, 0x30, 0x00, 0x00, 0x00,
  0x02, 0x00, 0x00, 0x00, 0x01, 0x00, 0x00, 0x00, 0x06, 0x00, 0x00, 0x00,
  0xea, 0xec, 0xff, 0xff, 0x00, 0x00, 0x00, 0x01, 0x14, 0x00, 0x00, 0x00,
  0x30, 0x00, 0x00, 0x00, 0x1e, 0x00, 0x00, 0x00, 0x00, 0x00, 0x00, 0x09,
  0x5c, 0x00, 0x00, 0x00, 0xd4, 0xec, 0xff, 0xff, 0x08, 0x00, 0x00, 0x00,
  0x10, 0x00, 0x00, 0x00, 0x01, 0x00, 0x00, 0x00, 0xef, 0xff, 0xff, 0xff,
  0xff, 0xff, 0xff, 0xff, 0x01, 0x00, 0x00, 0x00, 0x6a, 0xc6, 0x11, 0x3e,
  0x32, 0x00, 0x00, 0x00, 0x73, 0x65, 0x71, 0x75, 0x65, 0x6e, 0x74, 0x69,
  0x61, 0x6c, 0x2f, 0x79, 0x5f, 0x70, 0x72, 0x65, 0x64, 0x2f, 0x4d, 0x61,
  0x74, 0x4d, 0x75, 0x6c, 0x3b, 0x73, 0x65, 0x71, 0x75, 0x65, 0x6e, 0x74,
  0x69, 0x61, 0x6c, 0x2f, 0x79, 0x5f, 0x70, 0x72, 0x65, 0x64, 0x2f, 0x42,
  0x69, 0x61, 0x73, 0x41, 0x64, 0x64, 0x00, 0x00, 0x02, 0x00, 0x00, 0x00,
  0x01, 0x00, 0x00, 0x00, 0x06, 0x00, 0x00, 0x00, 0x6a, 0xed, 0xff, 0xff,
  0x00, 0x00, 0x00, 0x01, 0x14, 0x00, 0x00, 0x00, 0x30, 0x00, 0x00, 0x00,
  0x1d, 0x00, 0x00, 0x00, 0x00, 0x00, 0x00, 0x09, 0x44, 0x00, 0x00, 0x00,
  0x54, 0xed, 0xff, 0xff, 0x08, 0x00, 0x00, 0x00, 0x10, 0x00, 0x00, 0x00,
  0x01, 0x00, 0x00, 0x00, 0x80, 0xff, 0xff, 0xff, 0xff, 0xff, 0xff, 0xff,
  0x01, 0x00, 0x00, 0x00, 0x8b, 0x29, 0x5b, 0x3d, 0x1a, 0x00, 0x00, 0x00,
  0x73, 0x65, 0x71, 0x75, 0x65, 0x6e, 0x74, 0x69, 0x61, 0x6c, 0x2f, 0x66,
  0x6c, 0x61, 0x74, 0x74, 0x65, 0x6e, 0x2f, 0x52, 0x65, 0x73, 0x68, 0x61,
  0x70, 0x65, 0x00, 0x00, 0x02, 0x00, 0x00, 0x00, 0x01, 0x00, 0x00, 0x00,
  0xa8, 0x00, 0x00, 0x00, 0xd2, 0xed, 0xff, 0xff, 0x00, 0x00, 0x00, 0x01,
  0x14, 0x00, 0x00, 0x00, 0x30, 0x00, 0x00, 0x00, 0x1c, 0x00, 0x00, 0x00,
  0x00, 0x00, 0x00, 0x09, 0x4c, 0x00, 0x00, 0x00, 0xbc, 0xed, 0xff, 0xff,
  0x08, 0x00, 0x00, 0x00, 0x10, 0x00, 0x00, 0x00, 0x01, 0x00, 0x00, 0x00,
  0x80, 0xff, 0xff, 0xff, 0xff, 0xff, 0xff, 0xff, 0x01, 0x00, 0x00, 0x00,
  0x8b, 0x29, 0x5b, 0x3d, 0x22, 0x00, 0x00, 0x00, 0x73, 0x65, 0x71, 0x75,
  0x65, 0x6e, 0x74, 0x69, 0x61, 0x6c, 0x2f, 0x6d, 0x61, 0x78, 0x5f, 0x70,
  0x6f, 0x6f, 0x6c, 0x69, 0x6e, 0x67, 0x31, 0x64, 0x5f, 0x32, 0x2f, 0x4d,
  0x61, 0x78, 0x50, 0x6f, 0x6f, 0x6c, 0x00, 0x00, 0x04, 0x00, 0x00, 0x00,
  0x01, 0x00, 0x00, 0x00, 0x07, 0x00, 0x00, 0x00, 0x01, 0x00, 0x00, 0x00,
  0x18, 0x00, 0x00, 0x00, 0x4a, 0xee, 0xff, 0xff, 0x00, 0x00, 0x00, 0x01,
  0x14, 0x00, 0x00, 0x00, 0x34, 0x00, 0x00, 0x00, 0x1b, 0x00, 0x00, 0x00,
  0x00, 0x00, 0x00, 0x09, 0x54, 0x00, 0x00, 0x00, 0x34, 0xee, 0xff, 0xff,
  0x08, 0x00, 0x00, 0x00, 0x14, 0x00, 0x00, 0x00, 0x01, 0x00, 0x00, 0x00,
  0x80, 0xff, 0xff, 0xff, 0xff, 0xff, 0xff, 0xff, 0x00, 0x00, 0x00, 0x00,
  0x01, 0x00, 0x00, 0x00, 0x8b, 0x29, 0x5b, 0x3d, 0x26, 0x00, 0x00, 0x00,
  0x73, 0x65, 0x71, 0x75, 0x65, 0x6e, 0x74, 0x69, 0x61, 0x6c, 0x2f, 0x6d,
  0x61, 0x78, 0x5f, 0x70, 0x6f, 0x6f, 0x6c, 0x69, 0x6e, 0x67, 0x31, 0x64,
  0x5f, 0x32, 0x2f, 0x45, 0x78, 0x70, 0x61, 0x6e, 0x64, 0x44, 0x69, 0x6d,
  0x73, 0x31, 0x00, 0x00, 0x04, 0x00, 0x00, 0x00, 0x01, 0x00, 0x00, 0x00,
  0x0d, 0x00, 0x00, 0x00, 0x01, 0x00, 0x00, 0x00, 0x18, 0x00, 0x00, 0x00,
  0xca, 0xee, 0xff, 0xff, 0x00, 0x00, 0x00, 0x01, 0x14, 0x00, 0x00, 0x00,
  0x34, 0x00, 0x00, 0x00, 0x1a, 0x00, 0x00, 0x00, 0x00, 0x00, 0x00, 0x09,
  0xcc, 0x00, 0x00, 0x00, 0xb4, 0xee, 0xff, 0xff, 0x08, 0x00, 0x00, 0x00,
  0x14, 0x00, 0x00, 0x00, 0x01, 0x00, 0x00, 0x00, 0x80, 0xff, 0xff, 0xff,
  0xff, 0xff, 0xff, 0xff, 0x00, 0x00, 0x00, 0x00, 0x01, 0x00, 0x00, 0x00,
  0x8b, 0x29, 0x5b, 0x3d, 0x9d, 0x00, 0x00, 0x00, 0x73, 0x65, 0x71, 0x75,
  0x65, 0x6e, 0x74, 0x69, 0x61, 0x6c, 0x2f, 0x63, 0x6f, 0x6e, 0x76, 0x31,
  0x64, 0x5f, 0x32, 0x2f, 0x52, 0x65, 0x6c, 0x75, 0x3b, 0x73, 0x65, 0x71,
  0x75, 0x65, 0x6e, 0x74, 0x69, 0x61, 0x6c, 0x2f, 0x63, 0x6f, 0x6e, 0x76,
  0x31, 0x64, 0x5f, 0x32, 0x2f, 0x42, 0x69, 0x61, 0x73, 0x41, 0x64, 0x64,
  0x3b, 0x73, 0x65, 0x71, 0x75, 0x65, 0x6e, 0x74, 0x69, 0x61, 0x6c, 0x2f,
  0x63, 0x6f, 0x6e, 0x76, 0x31, 0x64, 0x5f, 0x32, 0x2f, 0x43, 0x6f, 0x6e,
  0x76, 0x31, 0x44, 0x2f, 0x53, 0x71, 0x75, 0x65, 0x65, 0x7a, 0x65, 0x3b,
  0x73, 0x65, 0x71, 0x75, 0x65, 0x6e, 0x74, 0x69, 0x61, 0x6c, 0x2f, 0x63,
  0x6f, 0x6e, 0x76, 0x31, 0x64, 0x5f, 0x32, 0x2f, 0x42, 0x69, 0x61, 0x73,
  0x41, 0x64, 0x64, 0x2f, 0x52, 0x65, 0x61, 0x64, 0x56, 0x61, 0x72, 0x69,
  0x61, 0x62, 0x6c, 0x65, 0x4f, 0x70, 0x3b, 0x73, 0x65, 0x71, 0x75, 0x65,
  0x6e, 0x74, 0x69, 0x61, 0x6c, 0x2f, 0x63, 0x6f, 0x6e, 0x76, 0x31, 0x64,
  0x5f, 0x32, 0x2f, 0x43, 0x6f, 0x6e, 0x76, 0x31, 0x44, 0x00, 0x00, 0x00,
  0x04, 0x00, 0x00, 0x00, 0x01, 0x00, 0x00, 0x00, 0x01, 0x00, 0x00, 0x00,
  0x0d, 0x00, 0x00, 0x00, 0x18, 0x00, 0x00, 0x00, 0xc2, 0xef, 0xff, 0xff,
  0x00, 0x00, 0x00, 0x01, 0x14, 0x00, 0x00, 0x00, 0x34, 0x00, 0x00, 0x00,
  0x19, 0x00, 0x00, 0x00, 0x00, 0x00, 0x00, 0x09, 0x54, 0x00, 0x00, 0x00,
  0xac, 0xef, 0xff, 0xff, 0x08, 0x00, 0x00, 0x00, 0x14, 0x00, 0x00, 0x00,
  0x01, 0x00, 0x00, 0x00, 0x80, 0xff, 0xff, 0xff, 0xff, 0xff, 0xff, 0xff,
  0x00, 0x00, 0x00, 0x00, 0x01, 0x00, 0x00, 0x00, 0xb0, 0x8d, 0x24, 0x3d,
  0x26, 0x00, 0x00, 0x00, 0x73, 0x65, 0x71, 0x75, 0x65, 0x6e, 0x74, 0x69,
  0x61, 0x6c, 0x2f, 0x63, 0x6f, 0x6e, 0x76, 0x31, 0x64, 0x5f, 0x32, 0x2f,
  0x43, 0x6f, 0x6e, 0x76, 0x31, 0x44, 0x2f, 0x45, 0x78, 0x70, 0x61, 0x6e,
  0x64, 0x44, 0x69, 0x6d, 0x73, 0x31, 0x00, 0x00, 0x04, 0x00, 0x00, 0x00,
  0x01, 0x00, 0x00, 0x00, 0x01, 0x00, 0x00, 0x00, 0x0d, 0x00, 0x00, 0x00,
  0x10, 0x00, 0x00, 0x00, 0x42, 0xf0, 0xff, 0xff, 0x00, 0x00, 0x00, 0x01,
  0x14, 0x00, 0x00, 0x00, 0x30, 0x00, 0x00, 0x00, 0x18, 0x00, 0x00, 0x00,
  0x00, 0x00, 0x00, 0x09, 0x4c, 0x00, 0x00, 0x00, 0x2c, 0xf0, 0xff, 0xff,
  0x08, 0x00, 0x00, 0x00, 0x10, 0x00, 0x00, 0x00, 0x01, 0x00, 0x00, 0x00,
  0x80, 0xff, 0xff, 0xff, 0xff, 0xff, 0xff, 0xff, 0x01, 0x00, 0x00, 0x00,
  0xb0, 0x8d, 0x24, 0x3d, 0x22, 0x00, 0x00, 0x00, 0x73, 0x65, 0x71, 0x75,
  0x65, 0x6e, 0x74, 0x69, 0x61, 0x6c, 0x2f, 0x6d, 0x61, 0x78, 0x5f, 0x70,
  0x6f, 0x6f, 0x6c, 0x69, 0x6e, 0x67, 0x31, 0x64, 0x5f, 0x31, 0x2f, 0x4d,
  0x61, 0x78, 0x50, 0x6f, 0x6f, 0x6c, 0x00, 0x00, 0x04, 0x00, 0x00, 0x00,
  0x01, 0x00, 0x00, 0x00, 0x0d, 0x00, 0x00, 0x00, 0x01, 0x00, 0x00, 0x00,
  0x10, 0x00, 0x00, 0x00, 0xba, 0xf0, 0xff, 0xff, 0x00, 0x00, 0x00, 0x01,
  0x14, 0x00, 0x00, 0x00, 0x34, 0x00, 0x00, 0x00, 0x17, 0x00, 0x00, 0x00,
  0x00, 0x00, 0x00, 0x09, 0x54, 0x00, 0x00, 0x00, 0xa4, 0xf0, 0xff, 0xff,
  0x08, 0x00, 0x00, 0x00, 0x14, 0x00, 0x00, 0x00, 0x01, 0x00, 0x00, 0x00,
  0x80, 0xff, 0xff, 0xff, 0xff, 0xff, 0xff, 0xff, 0x00, 0x00, 0x00, 0x00,
  0x01, 0x00, 0x00, 0x00, 0xb0, 0x8d, 0x24, 0x3d, 0x26, 0x00, 0x00, 0x00,
  0x73, 0x65, 0x71, 0x75, 0x65, 0x6e, 0x74, 0x69, 0x61, 0x6c, 0x2f, 0x6d,
  0x61, 0x78, 0x5f, 0x70, 0x6f, 0x6f, 0x6c, 0x69, 0x6e, 0x67, 0x31, 0x64,
  0x5f, 0x31, 0x2f, 0x45, 0x78, 0x70, 0x61, 0x6e, 0x64, 0x44, 0x69, 0x6d,
  0x73, 0x31, 0x00, 0x00, 0x04, 0x00, 0x00, 0x00, 0x01, 0x00, 0x00, 0x00,
  0x19, 0x00, 0x00, 0x00, 0x01, 0x00, 0x00, 0x00, 0x10, 0x00, 0x00, 0x00,
  0x3a, 0xf1, 0xff, 0xff, 0x00, 0x00, 0x00, 0x01, 0x14, 0x00, 0x00, 0x00,
  0x34, 0x00, 0x00, 0x00, 0x16, 0x00, 0x00, 0x00, 0x00, 0x00, 0x00, 0x09,
  0xcc, 0x00, 0x00, 0x00, 0x24, 0xf1, 0xff, 0xff, 0x08, 0x00, 0x00, 0x00,
  0x14, 0x00, 0x00, 0x00, 0x01, 0x00, 0x00, 0x00, 0x80, 0xff, 0xff, 0xff,
  0xff, 0xff, 0xff, 0xff, 0x00, 0x00, 0x00, 0x00, 0x01, 0x00, 0x00, 0x00,
  0xb0, 0x8d, 0x24, 0x3d, 0x9d, 0x00, 0x00, 0x00, 0x73, 0x65, 0x71, 0x75,
  0x65, 0x6e, 0x74, 0x69, 0x61, 0x6c, 0x2f, 0x63, 0x6f, 0x6e, 0x76, 0x31,
  0x64, 0x5f, 0x31, 0x2f, 0x52, 0x65, 0x6c, 0x75, 0x3b, 0x73, 0x65, 0x71,
  0x75, 0x65, 0x6e, 0x74, 0x69, 0x61, 0x6c, 0x2f, 0x63, 0x6f, 0x6e, 0x76,
  0x31, 0x64, 0x5f, 0x31, 0x2f, 0x42, 0x69, 0x61, 0x73, 0x41, 0x64, 0x64,
  0x3b, 0x73, 0x65, 0x71, 0x75, 0x65, 0x6e, 0x74, 0x69, 0x61, 0x6c, 0x2f,
  0x63, 0x6f, 0x6e, 0x76, 0x31, 0x64, 0x5f, 0x31, 0x2f, 0x43, 0x6f, 0x6e,
  0x76, 0x31, 0x44, 0x2f, 0x53, 0x71, 0x75, 0x65, 0x65, 0x7a, 0x65, 0x3b,
  0x73, 0x65, 0x71, 0x75, 0x65, 0x6e, 0x74, 0x69, 0x61, 0x6c, 0x2f, 0x63,
  0x6f, 0x6e, 0x76, 0x31, 0x64, 0x5f, 0x31, 0x2f, 0x42, 0x69, 0x61, 0x73,
  0x41, 0x64, 0x64, 0x2f, 0x52, 0x65, 0x61, 0x64, 0x56, 0x61, 0x72, 0x69,
  0x61, 0x62, 0x6c, 0x65, 0x4f, 0x70, 0x3b, 0x73, 0x65, 0x71, 0x75, 0x65,
  0x6e, 0x74, 0x69, 0x61, 0x6c, 0x2f, 0x63, 0x6f, 0x6e, 0x76, 0x31, 0x64,
  0x5f, 0x31, 0x2f, 0x43, 0x6f, 0x6e, 0x76, 0x31, 0x44, 0x00, 0x00, 0x00,
  0x04, 0x00, 0x00, 0x00, 0x01, 0x00, 0x00, 0x00, 0x01, 0x00, 0x00, 0x00,
  0x19, 0x00, 0x00, 0x00, 0x10, 0x00, 0x00, 0x00, 0x32, 0xf2, 0xff, 0xff,
  0x00, 0x00, 0x00, 0x01, 0x14, 0x00, 0x00, 0x00, 0x34, 0x00, 0x00, 0x00,
  0x15, 0x00, 0x00, 0x00, 0x00, 0x00, 0x00, 0x09, 0x54, 0x00, 0x00, 0x00,
  0x1c, 0xf2, 0xff, 0xff, 0x08, 0x00, 0x00, 0x00, 0x14, 0x00, 0x00, 0x00,
  0x01, 0x00, 0x00, 0x00, 0x80, 0xff, 0xff, 0xff, 0xff, 0xff, 0xff, 0xff,
  0x00, 0x00, 0x00, 0x00, 0x01, 0x00, 0x00, 0x00, 0x3e, 0xea, 0x1c, 0x3d,
  0x26, 0x00, 0x00, 0x00, 0x73, 0x65, 0x71, 0x75, 0x65, 0x6e, 0x74, 0x69,
  0x61, 0x6c, 0x2f, 0x63, 0x6f, 0x6e, 0x76, 0x31, 0x64, 0x5f, 0x31, 0x2f,
  0x43, 0x6f, 0x6e, 0x76, 0x31, 0x44, 0x2f, 0x45, 0x78, 0x70, 0x61, 0x6e,
  0x64, 0x44, 0x69, 0x6d, 0x73, 0x31, 0x00, 0x00, 0x04, 0x00, 0x00, 0x00,
  0x01, 0x00, 0x00, 0x00, 0x01, 0x00, 0x00, 0x00, 0x19, 0x00, 0x00, 0x00,
  0x10, 0x00, 0x00, 0x00, 0xb2, 0xf2, 0xff, 0xff, 0x00, 0x00, 0x00, 0x01,
  0x14, 0x00, 0x00, 0x00, 0x30, 0x00, 0x00, 0x00, 0x14, 0x00, 0x00, 0x00,
  0x00, 0x00, 0x00, 0x09, 0x4c, 0x00, 0x00, 0x00, 0x9c, 0xf2, 0xff, 0xff,
  0x08, 0x00, 0x00, 0x00, 0x10, 0x00, 0x00, 0x00, 0x01, 0x00, 0x00, 0x00,
  0x80, 0xff, 0xff, 0xff, 0xff, 0xff, 0xff, 0xff, 0x01, 0x00, 0x00, 0x00,
  0x3e, 0xea, 0x1c, 0x3d, 0x20, 0x00, 0x00, 0x00, 0x73, 0x65, 0x71, 0x75,
  0x65, 0x6e, 0x74, 0x69, 0x61, 0x6c, 0x2f, 0x6d, 0x61, 0x78, 0x5f, 0x70,
  0x6f, 0x6f, 0x6c, 0x69, 0x6e, 0x67, 0x31, 0x64, 0x2f, 0x4d, 0x61, 0x78,
  0x50, 0x6f, 0x6f, 0x6c, 0x00, 0x00, 0x00, 0x00, 0x04, 0x00, 0x00, 0x00,
  0x01, 0x00, 0x00, 0x00, 0x19, 0x00, 0x00, 0x00, 0x01, 0x00, 0x00, 0x00,
  0x10, 0x00, 0x00, 0x00, 0x2a, 0xf3, 0xff, 0xff, 0x00, 0x00, 0x00, 0x01,
  0x14, 0x00, 0x00, 0x00, 0x34, 0x00, 0x00, 0x00, 0x13, 0x00, 0x00, 0x00,
  0x00, 0x00, 0x00, 0x09, 0x54, 0x00, 0x00, 0x00, 0x14, 0xf3, 0xff, 0xff,
  0x08, 0x00, 0x00, 0x00, 0x14, 0x00, 0x00, 0x00, 0x01, 0x00, 0x00, 0x00,
  0x80, 0xff, 0xff, 0xff, 0xff, 0xff, 0xff, 0xff, 0x00, 0x00, 0x00, 0x00,
  0x01, 0x00, 0x00, 0x00, 0x3e, 0xea, 0x1c, 0x3d, 0x24, 0x00, 0x00, 0x00,
  0x73, 0x65, 0x71, 0x75, 0x65, 0x6e, 0x74, 0x69, 0x61, 0x6c, 0x2f, 0x6d,
  0x61, 0x78, 0x5f, 0x70, 0x6f, 0x6f, 0x6c, 0x69, 0x6e, 0x67, 0x31, 0x64,
  0x2f, 0x45, 0x78, 0x70, 0x61, 0x6e, 0x64, 0x44, 0x69, 0x6d, 0x73, 0x31,
  0x00, 0x00, 0x00, 0x00, 0x04, 0x00, 0x00, 0x00, 0x01, 0x00, 0x00, 0x00,
  0x32, 0x00, 0x00, 0x00, 0x01, 0x00, 0x00, 0x00, 0x10, 0x00, 0x00, 0x00,
  0xaa, 0xf3, 0xff, 0xff, 0x00, 0x00, 0x00, 0x01, 0x14, 0x00, 0x00, 0x00,
  0x34, 0x00, 0x00, 0x00, 0x12, 0x00, 0x00, 0x00, 0x00, 0x00, 0x00, 0x09,
  0xdc, 0x00, 0x00, 0x00, 0x94, 0xf3, 0xff, 0xff, 0x08, 0x00, 0x00, 0x00,
  0x14, 0x00, 0x00, 0x00, 0x01, 0x00, 0x00, 0x00, 0x80, 0xff, 0xff, 0xff,
  0xff, 0xff, 0xff, 0xff, 0x00, 0x00, 0x00, 0x00, 0x01, 0x00, 0x00, 0x00,
  0x3e, 0xea, 0x1c, 0x3d, 0xae, 0x00, 0x00, 0x00, 0x73, 0x65, 0x71, 0x75,
  0x65, 0x6e, 0x74, 0x69, 0x61, 0x6c, 0x2f, 0x63, 0x6f, 0x6e, 0x76, 0x31,
  0x64, 0x2f, 0x52, 0x65, 0x6c, 0x75, 0x3b, 0x73, 0x65, 0x71, 0x75, 0x65,
  0x6e, 0x74, 0x69, 0x61, 0x6c, 0x2f, 0x63, 0x6f, 0x6e, 0x76, 0x31, 0x64,
  0x2f, 0x42, 0x69, 0x61, 0x73, 0x41, 0x64, 0x64, 0x3b, 0x73, 0x65, 0x71,
  0x75, 0x65, 0x6e, 0x74, 0x69, 0x61, 0x6c, 0x2f, 0x63, 0x6f, 0x6e, 0x76,
  0x31, 0x64, 0x2f, 0x43, 0x6f, 0x6e, 0x76, 0x31, 0x44, 0x2f, 0x53, 0x71,
  0x75, 0x65, 0x65, 0x7a, 0x65, 0x3b, 0x73, 0x65, 0x71, 0x75, 0x65, 0x6e,
  0x74, 0x69, 0x61, 0x6c, 0x2f, 0x63, 0x6f, 0x6e, 0x76, 0x31, 0x64, 0x2f,
  0x42, 0x69, 0x61, 0x73, 0x41, 0x64, 0x64, 0x2f, 0x52, 0x65, 0x61, 0x64,
  0x56, 0x61, 0x72, 0x69, 0x61, 0x62, 0x6c, 0x65, 0x4f, 0x70, 0x3b, 0x73,
  0x65, 0x71, 0x75, 0x65, 0x6e, 0x74, 0x69, 0x61, 0x6c, 0x2f, 0x63, 0x6f,
  0x6e, 0x76, 0x31, 0x64, 0x5f, 0x31, 0x2f, 0x43, 0x6f, 0x6e, 0x76, 0x31,
  0x44, 0x3b, 0x73, 0x65, 0x71, 0x75, 0x65, 0x6e, 0x74, 0x69, 0x61, 0x6c,
  0x2f, 0x63, 0x6f, 0x6e, 0x76, 0x31, 0x64, 0x2f, 0x43, 0x6f, 0x6e, 0x76,
  0x31, 0x44, 0x00, 0x00, 0x04, 0x00, 0x00, 0x00, 0x01, 0x00, 0x00, 0x00,
  0x01, 0x00, 0x00, 0x00, 0x32, 0x00, 0x00, 0x00, 0x10, 0x00, 0x00, 0x00,
  0xb2, 0xf4, 0xff, 0xff, 0x00, 0x00, 0x00, 0x01, 0x14, 0x00, 0x00, 0x00,
  0x34, 0x00, 0x00, 0x00, 0x11, 0x00, 0x00, 0x00, 0x00, 0x00, 0x00, 0x09,
  0x54, 0x00, 0x00, 0x00, 0x9c, 0xf4, 0xff, 0xff, 0x08, 0x00, 0x00, 0x00,
  0x14, 0x00, 0x00, 0x00, 0x01, 0x00, 0x00, 0x00, 0xf7, 0xff, 0xff, 0xff,
  0xff, 0xff, 0xff, 0xff, 0x00, 0x00, 0x00, 0x00, 0x01, 0x00, 0x00, 0x00,
  0xc3, 0x90, 0x2e, 0x3d, 0x24, 0x00, 0x00, 0x00, 0x73, 0x65, 0x71, 0x75,
  0x65, 0x6e, 0x74, 0x69, 0x61, 0x6c, 0x2f, 0x63, 0x6f, 0x6e, 0x76, 0x31,
  0x64, 0x2f, 0x43, 0x6f, 0x6e, 0x76, 0x31, 0x44, 0x2f, 0x45, 0x78, 0x70,
  0x61, 0x6e, 0x64, 0x44, 0x69, 0x6d, 0x73, 0x31, 0x00, 0x00, 0x00, 0x00,
  0x04, 0x00, 0x00, 0x00, 0x01, 0x00, 0x00, 0x00, 0x01, 0x00, 0x00, 0x00,
  0x32, 0x00, 0x00, 0x00, 0x0d, 0x00, 0x00, 0x00, 0x32, 0xf5, 0xff, 0xff,
  0x00, 0x00, 0x00, 0x01, 0x14, 0x00, 0x00, 0x00, 0xe8, 0x00, 0x00, 0x00,
  0x10, 0x00, 0x00, 0x00, 0x00, 0x00, 0x00, 0x09, 0xfc, 0x00, 0x00, 0x00,
  0x1c, 0xf5, 0xff, 0xff, 0x08, 0x00, 0x00, 0x00, 0x8c, 0x00, 0x00, 0x00,
  0x10, 0x00, 0x00, 0x00, 0x00, 0x00, 0x00, 0x00, 0x00, 0x00, 0x00, 0x00,
  0x00, 0x00, 0x00, 0x00, 0x00, 0x00, 0x00, 0x00, 0x00, 0x00, 0x00, 0x00,
  0x00, 0x00, 0x00, 0x00, 0x00, 0x00, 0x00, 0x00, 0x00, 0x00, 0x00, 0x00,
  0x00, 0x00, 0x00, 0x00, 0x00, 0x00, 0x00, 0x00, 0x00, 0x00, 0x00, 0x00,
  0x00, 0x00, 0x00, 0x00, 0x00, 0x00, 0x00, 0x00, 0x00, 0x00, 0x00, 0x00,
  0x00, 0x00, 0x00, 0x00, 0x00, 0x00, 0x00, 0x00, 0x00, 0x00, 0x00, 0x00,
  0x00, 0x00, 0x00, 0x00, 0x00, 0x00, 0x00, 0x00, 0x00, 0x00, 0x00, 0x00,
  0x00, 0x00, 0x00, 0x00, 0x00, 0x00, 0x00, 0x00, 0x00, 0x00, 0x00, 0x00,
  0x00, 0x00, 0x00, 0x00, 0x00, 0x00, 0x00, 0x00, 0x00, 0x00, 0x00, 0x00,
  0x00, 0x00, 0x00, 0x00, 0x00, 0x00, 0x00, 0x00, 0x00, 0x00, 0x00, 0x00,
  0x00, 0x00, 0x00, 0x00, 0x00, 0x00, 0x00, 0x00, 0x00, 0x00, 0x00, 0x00,
  0x00, 0x00, 0x00, 0x00, 0x10, 0x00, 0x00, 0x00, 0x3a, 0x96, 0x5c, 0x3b,
  0x96, 0x2d, 0x18, 0x3c, 0x9c, 0x48, 0x6d, 0x3b, 0x7b, 0x0f, 0x81, 0x3b,
  0x60, 0xf2, 0x8a, 0x3b, 0x2a, 0xea, 0x4c, 0x3b, 0x3f, 0x26, 0xa3, 0x3b,
  0xdd, 0x55, 0x80, 0x3b, 0xfa, 0x15, 0x9a, 0x3b, 0xc9, 0xc7, 0xce, 0x3b,
  0x19, 0x0f, 0xc0, 0x3b, 0x49, 0xc0, 0xe6, 0x3b, 0xe5, 0xee, 0x88, 0x3b,
  0xa9, 0x02, 0x84, 0x3b, 0xb0, 0xcf, 0x90, 0x3b, 0xf2, 0x91, 0x57, 0x3b,
  0x18, 0x00, 0x00, 0x00, 0x73, 0x65, 0x71, 0x75, 0x65, 0x6e, 0x74, 0x69,
  0x61, 0x6c, 0x2f, 0x63, 0x6f, 0x6e, 0x76, 0x31, 0x64, 0x2f, 0x43, 0x6f,
  0x6e, 0x76, 0x31, 0x44, 0x00, 0x00, 0x00, 0x00, 0x04, 0x00, 0x00, 0x00,
  0x10, 0x00, 0x00, 0x00, 0x01, 0x00, 0x00, 0x00, 0x03, 0x00, 0x00, 0x00,
  0x0d, 0x00, 0x00, 0x00, 0x5a, 0xf6, 0xff, 0xff, 0x00, 0x00, 0x00, 0x01,
  0x14, 0x00, 0x00, 0x00, 0xe4, 0x00, 0x00, 0x00, 0x0f, 0x00, 0x00, 0x00,
  0x00, 0x00, 0x00, 0x02, 0x08, 0x01, 0x00, 0x00, 0x44, 0xf6, 0xff, 0xff,
  0x08, 0x00, 0x00, 0x00, 0x88, 0x00, 0x00, 0x00, 0x10, 0x00, 0x00, 0x00,
  0x00, 0x00, 0x00, 0x00, 0x00, 0x00, 0x00, 0x00, 0x00, 0x00, 0x00, 0x00,
  0x00, 0x00, 0x00, 0x00, 0x00, 0x00, 0x00, 0x00, 0x00, 0x00, 0x00, 0x00,
  0x00, 0x00, 0x00, 0x00, 0x00, 0x00, 0x00, 0x00, 0x00, 0x00, 0x00, 0x00,
  0x00, 0x00, 0x00, 0x00, 0x00, 0x00, 0x00, 0x00, 0x00, 0x00, 0x00, 0x00,
  0x00, 0x00, 0x00, 0x00, 0x00, 0x00, 0x00, 0x00, 0x00, 0x00, 0x00, 0x00,
  0x00, 0x00, 0x00, 0x00, 0x00, 0x00, 0x00, 0x00, 0x00, 0x00, 0x00, 0x00,
  0x00, 0x00, 0x00, 0x00, 0x00, 0x00, 0x00, 0x00, 0x00, 0x00, 0x00, 0x00,
  0x00, 0x00, 0x00, 0x00, 0x00, 0x00, 0x00, 0x00, 0x00, 0x00, 0x00, 0x00,
  0x00, 0x00, 0x00, 0x00, 0x00, 0x00, 0x00, 0x00, 0x00, 0x00, 0x00, 0x00,
  0x00, 0x00, 0x00, 0x00, 0x00, 0x00, 0x00, 0x00, 0x00, 0x00, 0x00, 0x00,
  0x00, 0x00, 0x00, 0x00, 0x00, 0x00, 0x00, 0x00, 0x10, 0x00, 0x00, 0x00,
  0xd8, 0x6a, 0x16, 0x39, 0x13, 0x8a, 0xcf, 0x39, 0x88, 0xcd, 0x21, 0x39,
  0x01, 0x03, 0x30, 0x39, 0x9f, 0x7e, 0x3d, 0x39, 0x08, 0xbb, 0x0b, 0x39,
  0x81, 0x80, 0x5e, 0x39, 0xdd, 0x05, 0x2f, 0x39, 0x23, 0x24, 0x52, 0x39,
  0xb9, 0x00, 0x8d, 0x39, 0xde, 0xf6, 0x82, 0x39, 0x2e, 0x59, 0x9d, 0x39,
  0x9d, 0xbf, 0x3a, 0x39, 0xea, 0x08, 0x34, 0x39, 0x1a, 0x7e, 0x45, 0x39,
  0x19, 0xff, 0x12, 0x39, 0x28, 0x00, 0x00, 0x00, 0x73, 0x65, 0x71, 0x75,
  0x65, 0x6e, 0x74, 0x69, 0x61, 0x6c, 0x2f, 0x63, 0x6f, 0x6e, 0x76, 0x31,
  0x64, 0x2f, 0x42, 0x69, 0x61, 0x73, 0x41, 0x64, 0x64, 0x2f, 0x52, 0x65,
  0x61, 0x64, 0x56, 0x61, 0x72, 0x69, 0x61, 0x62, 0x6c, 0x65, 0x4f, 0x70,
  0x00, 0x00, 0x00, 0x00, 0x01, 0x00, 0x00, 0x00, 0x10, 0x00, 0x00, 0x00,
  0x82, 0xf7, 0xff, 0xff, 0x00, 0x00, 0x00, 0x01, 0x14, 0x00, 0x00, 0x00,
  0xe8, 0x00, 0x00, 0x00, 0x0e, 0x00, 0x00, 0x00, 0x00, 0x00, 0x00, 0x09,
  0xfc, 0x00, 0x00, 0x00, 0x6c, 0xf7, 0xff, 0xff, 0x08, 0x00, 0x00, 0x00,
  0x8c, 0x00, 0x00, 0x00, 0x10, 0x00, 0x00, 0x00, 0x00, 0x00, 0x00, 0x00,
  0x00, 0x00, 0x00, 0x00, 0x00, 0x00, 0x00, 0x00, 0x00, 0x00, 0x00, 0x00,
  0x00, 0x00, 0x00, 0x00, 0x00, 0x00, 0x00, 0x00, 0x00, 0x00, 0x00, 0x00,
  0x00, 0x00, 0x00, 0x00, 0x00, 0x00, 0x00, 0x00, 0x00, 0x00, 0x00, 0x00,
  0x00, 0x00, 0x00, 0x00, 0x00, 0x00, 0x00, 0x00, 0x00, 0x00, 0x00, 0x00,
  0x00, 0x00, 0x00, 0x00, 0x00, 0x00, 0x00, 0x00, 0x00, 0x00, 0x00, 0x00,
  0x00, 0x00, 0x00, 0x00, 0x00, 0x00, 0x00, 0x00, 0x00, 0x00, 0x00, 0x00,
  0x00, 0x00, 0x00, 0x00, 0x00, 0x00, 0x00, 0x00, 0x00, 0x00, 0x00, 0x00,
  0x00, 0x00, 0x00, 0x00, 0x00, 0x00, 0x00, 0x00, 0x00, 0x00, 0x00, 0x00,
  0x00, 0x00, 0x00, 0x00, 0x00, 0x00, 0x00, 0x00, 0x00, 0x00, 0x00, 0x00,
  0x00, 0x00, 0x00, 0x00, 0x00, 0x00, 0x00, 0x00, 0x00, 0x00, 0x00, 0x00,
  0x00, 0x00, 0x00, 0x00, 0x00, 0x00, 0x00, 0x00, 0x10, 0x00, 0x00, 0x00,
  0x05, 0x36, 0xb2, 0x3b, 0xb6, 0x79, 0xa8, 0x3b, 0x54, 0xeb, 0x68, 0x3b,
  0x13, 0x3a, 0xa8, 0x3b, 0x20, 0x90, 0x9e, 0x3b, 0x05, 0xe0, 0xd6, 0x3b,
  0x3f, 0xa9, 0xe8, 0x3b, 0x01, 0xd4, 0xa3, 0x3b, 0xa1, 0xbc, 0xd8, 0x3b,
  0x5d, 0x60, 0x98, 0x3b, 0xb1, 0xfb, 0xf1, 0x3b, 0x21, 0xd0, 0xd9, 0x3b,
  0x6b, 0xc0, 0xfc, 0x3b, 0x89, 0x8d, 0x8e, 0x3b, 0x28, 0x7c, 0x8d, 0x3b,
  0x56, 0x8b, 0xdb, 0x3b, 0x1a, 0x00, 0x00, 0x00, 0x73, 0x65, 0x71, 0x75,
  0x65, 0x6e, 0x74, 0x69, 0x61, 0x6c, 0x2f, 0x63, 0x6f, 0x6e, 0x76, 0x31,
  0x64, 0x5f, 0x31, 0x2f, 0x43, 0x6f, 0x6e, 0x76, 0x31, 0x44, 0x00, 0x00,
  0x04, 0x00, 0x00, 0x00, 0x10, 0x00, 0x00, 0x00, 0x01, 0x00, 0x00, 0x00,
  0x03, 0x00, 0x00, 0x00, 0x10, 0x00, 0x00, 0x00, 0xaa, 0xf8, 0xff, 0xff,
  0x00, 0x00, 0x00, 0x01, 0x14, 0x00, 0x00, 0x00, 0xe4, 0x00, 0x00, 0x00,
  0x0d, 0x00, 0x00, 0x00, 0x00, 0x00, 0x00, 0x02, 0x08, 0x01, 0x00, 0x00,
  0x94, 0xf8, 0xff, 0xff, 0x08, 0x00, 0x00, 0x00, 0x88, 0x00, 0x00, 0x00,
  0x10, 0x00, 0x00, 0x00, 0x00, 0x00, 0x00, 0x00, 0x00, 0x00, 0x00, 0x00,
  0x00, 0x00, 0x00, 0x00, 0x00, 0x00, 0x00, 0x00, 0x00, 0x00, 0x00, 0x00,
  0x00, 0x00, 0x00, 0x00, 0x00, 0x00, 0x00, 0x00, 0x00, 0x00, 0x00, 0x00,
  0x00, 0x00, 0x00, 0x00, 0x00, 0x00, 0x00, 0x00, 0x00, 0x00, 0x00, 0x00,
  0x00, 0x00, 0x00, 0x00, 0x00, 0x00, 0x00, 0x00, 0x00, 0x00, 0x00, 0x00,
  0x00, 0x00, 0x00, 0x00, 0x00, 0x00, 0x00, 0x00, 0x00, 0x00, 0x00, 0x00,
  0x00, 0x00, 0x00, 0x00, 0x00, 0x00, 0x00, 0x00, 0x00, 0x00, 0x00, 0x00,
  0x00, 0x00, 0x00, 0x00, 0x00, 0x00, 0x00, 0x00, 0x00, 0x00, 0x00, 0x00,
  0x00, 0x00, 0x00, 0x00, 0x00, 0x00, 0x00, 0x00, 0x00, 0x00, 0x00, 0x00,
  0x00, 0x00, 0x00, 0x00, 0x00, 0x00, 0x00, 0x00, 0x00, 0x00, 0x00, 0x00,
  0x00, 0x00, 0x00, 0x00, 0x00, 0x00, 0x00, 0x00, 0x00, 0x00, 0x00, 0x00,
  0x10, 0x00, 0x00, 0x00, 0xf7, 0x77, 0x5a, 0x39, 0xa6, 0x88, 0x4e, 0x39,
  0x87, 0xc4, 0x0e, 0x39, 0xa3, 0x3a, 0x4e, 0x39, 0xd3, 0x61, 0x42, 0x39,
  0x20, 0xb5, 0x83, 0x39, 0x05, 0x9c, 0x8e, 0x39, 0x30, 0xd6, 0x48, 0x39,
  0x43, 0xd9, 0x84, 0x39, 0x4b, 0xcc, 0x3a, 0x39, 0xcb, 0x52, 0x94, 0x39,
  0x21, 0x82, 0x85, 0x39, 0x86, 0xec, 0x9a, 0x39, 0x5f, 0xc1, 0x2e, 0x39,
  0x3c, 0x72, 0x2d, 0x39, 0xcb, 0x91, 0x86, 0x39, 0x2a, 0x00, 0x00, 0x00,
  0x73, 0x65, 0x71, 0x75, 0x65, 0x6e, 0x74, 0x69, 0x61, 0x6c, 0x2f, 0x63,
  0x6f, 0x6e, 0x76, 0x31, 0x64, 0x5f, 0x31, 0x2f, 0x42, 0x69, 0x61, 0x73,
  0x41, 0x64, 0x64, 0x2f, 0x52, 0x65, 0x61, 0x64, 0x56, 0x61, 0x72, 0x69,
  0x61, 0x62, 0x6c, 0x65, 0x4f, 0x70, 0x00, 0x00, 0x01, 0x00, 0x00, 0x00,
  0x10, 0x00, 0x00, 0x00, 0xd2, 0xf9, 0xff, 0xff, 0x00, 0x00, 0x00, 0x01,
  0x14, 0x00, 0x00, 0x00, 0x48, 0x01, 0x00, 0x00, 0x0c, 0x00, 0x00, 0x00,
  0x00, 0x00, 0x00, 0x09, 0x5c, 0x01, 0x00, 0x00, 0xbc, 0xf9, 0xff, 0xff,
  0x08, 0x00, 0x00, 0x00, 0xcc, 0x00, 0x00, 0x00, 0x18, 0x00, 0x00, 0x00,
  0x00, 0x00, 0x00, 0x00, 0x00, 0x00, 0x00, 0x00, 0x00, 0x00, 0x00, 0x00,
  0x00, 0x00, 0x00, 0x00, 0x00, 0x00, 0x00, 0x00, 0x00, 0x00, 0x00, 0x00,
  0x00, 0x00, 0x00, 0x00, 0x00, 0x00, 0x00, 0x00, 0x00, 0x00, 0x00, 0x00,
  0x00, 0x00, 0x00, 0x00, 0x00, 0x00, 0x00, 0x00, 0x00, 0x00, 0x00, 0x00,
  0x00, 0x00, 0x00, 0x00, 0x00, 0x00, 0x00, 0x00, 0x00, 0x00, 0x00, 0x00,
  0x00, 0x00, 0x00, 0x00, 0x00, 0x00, 0x00, 0x00, 0x00, 0x00, 0x00, 0x00,
  0x00, 0x00, 0x00, 0x00, 0x00, 0x00, 0x00, 0x00, 0x00, 0x00, 0x00, 0x00,
  0x00, 0x00, 0x00, 0x00, 0x00, 0x00, 0x00, 0x00, 0x00, 0x00, 0x00, 0x00,
  0x00, 0x00, 0x00, 0x00, 0x00, 0x00, 0x00, 0x00, 0x00, 0x00, 0x00, 0x00,
  0x00, 0x00, 0x00, 0x00, 0x00, 0x00, 0x00, 0x00, 0x00, 0x00, 0x00, 0x00,
  0x00, 0x00, 0x00, 0x00, 0x00, 0x00, 0x00, 0x00, 0x00, 0x00, 0x00, 0x00,
  0x00, 0x00, 0x00, 0x00, 0x00, 0x00, 0x00, 0x00, 0x00, 0x00, 0x00, 0x00,
  0x00, 0x00, 0x00, 0x00, 0x00, 0x00, 0x00, 0x00, 0x00, 0x00, 0x00, 0x00,
  0x00, 0x00, 0x00, 0x00, 0x00, 0x00, 0x00, 0x00, 0x00, 0x00, 0x00, 0x00,
  0x00, 0x00, 0x00, 0x00, 0x00, 0x00, 0x00, 0x00, 0x00, 0x00, 0x00, 0x00,
  0x00, 0x00, 0x00, 0x00, 0x00, 0x00, 0x00, 0x00, 0x00, 0x00, 0x00, 0x00,
  0x00, 0x00, 0x00, 0x00, 0x18, 0x00, 0x00, 0x00, 0x27, 0xd6, 0x7c, 0x3b,
  0xdf, 0x89, 0x88, 0x3b, 0x57, 0x93, 0xab, 0x3b, 0x7b, 0xea, 0xa8, 0x3b,
  0xe4, 0x6e, 0xcc, 0x3b, 0x31, 0x20, 0x00, 0x3c, 0x05, 0x1e, 0xa9, 0x3b,
  0x9c, 0x9a, 0xad, 0x3b, 0x39, 0x42, 0xa9, 0x3b, 0xfa, 0x32, 0xca, 0x3b,
  0xc6, 0xba, 0x78, 0x3b, 0x66, 0x6c, 0x99, 0x3b, 0x50, 0xc7, 0xe3, 0x3b,
  0xe1, 0x6d, 0xe3, 0x3b, 0x32, 0xa9, 0x89, 0x3b, 0x5c, 0xc5, 0xe0, 0x3b,
  0x3d, 0x54, 0xa8, 0x3b, 0x92, 0xe3, 0xa2, 0x3b, 0x15, 0x92, 0xbf, 0x3b,
  0x29, 0x48, 0xb4, 0x3b, 0x52, 0xd7, 0x91, 0x3b, 0x35, 0x62, 0xa1, 0x3b,
  0xce, 0x6b, 0xaa, 0x3b, 0x2f, 0x95, 0xd3, 0x3b, 0x1a, 0x00, 0x00, 0x00,
  0x73, 0x65, 0x71, 0x75, 0x65, 0x6e, 0x74, 0x69, 0x61, 0x6c, 0x2f, 0x63,
  0x6f, 0x6e, 0x76, 0x31, 0x64, 0x5f, 0x32, 0x2f, 0x43, 0x6f, 0x6e, 0x76,
  0x31, 0x44, 0x00, 0x00, 0x04, 0x00, 0x00, 0x00, 0x18, 0x00, 0x00, 0x00,
  0x01, 0x00, 0x00, 0x00, 0x03, 0x00, 0x00, 0x00, 0x10, 0x00, 0x00, 0x00,
  0x5a, 0xfb, 0xff, 0xff, 0x00, 0x00, 0x00, 0x01, 0x14, 0x00, 0x00, 0x00,
  0x44, 0x01, 0x00, 0x00, 0x0b, 0x00, 0x00, 0x00, 0x00, 0x00, 0x00, 0x02,
  0x68, 0x01, 0x00, 0x00, 0x44, 0xfb, 0xff, 0xff, 0x08, 0x00, 0x00, 0x00,
  0xc8, 0x00, 0x00, 0x00, 0x18, 0x00, 0x00, 0x00, 0x00, 0x00, 0x00, 0x00,
  0x00, 0x00, 0x00, 0x00, 0x00, 0x00, 0x00, 0x00, 0x00, 0x00, 0x00, 0x00,
  0x00, 0x00, 0x00, 0x00, 0x00, 0x00, 0x00, 0x00, 0x00, 0x00, 0x00, 0x00,
  0x00, 0x00, 0x00, 0x00, 0x00, 0x00, 0x00, 0x00, 0x00, 0x00, 0x00, 0x00,
  0x00, 0x00, 0x00, 0x00, 0x00, 0x00, 0x00, 0x00, 0x00, 0x00, 0x00, 0x00,
  0x00, 0x00, 0x00, 0x00, 0x00, 0x00, 0x00, 0x00, 0x00, 0x00, 0x00, 0x00,
  0x00, 0x00, 0x00, 0x00, 0x00, 0x00, 0x00, 0x00, 0x00, 0x00, 0x00, 0x00,
  0x00, 0x00, 0x00, 0x00, 0x00, 0x00, 0x00, 0x00, 0x00, 0x00, 0x00, 0x00,
  0x00, 0x00, 0x00, 0x00, 0x00, 0x00, 0x00, 0x00, 0x00, 0x00, 0x00, 0x00,
  0x00, 0x00, 0x00, 0x00, 0x00, 0x00, 0x00, 0x00, 0x00, 0x00, 0x00, 0x00,
  0x00, 0x00, 0x00, 0x00, 0x00, 0x00, 0x00, 0x00, 0x00, 0x00, 0x00, 0x00,
  0x00, 0x00, 0x00, 0x00, 0x00, 0x00, 0x00, 0x00, 0x00, 0x00, 0x00, 0x00,
  0x00, 0x00, 0x00, 0x00, 0x00, 0x00, 0x00, 0x00, 0x00, 0x00, 0x00, 0x00,
  0x00, 0x00, 0x00, 0x00, 0x00, 0x00, 0x00, 0x00, 0x00, 0x00, 0x00, 0x00,
  0x00, 0x00, 0x00, 0x00, 0x00, 0x00, 0x00, 0x00, 0x00, 0x00, 0x00, 0x00,
  0x00, 0x00, 0x00, 0x00, 0x00, 0x00, 0x00, 0x00, 0x00, 0x00, 0x00, 0x00,
  0x00, 0x00, 0x00, 0x00, 0x00, 0x00, 0x00, 0x00, 0x18, 0x00, 0x00, 0x00,
  0x21, 0x85, 0x22, 0x39, 0xc9, 0x87, 0x2f, 0x39, 0xb4, 0x92, 0x5c, 0x39,
  0x68, 0x27, 0x59, 0x39, 0x30, 0x68, 0x83, 0x39, 0x12, 0xb7, 0xa4, 0x39,
  0xaa, 0x69, 0x59, 0x39, 0x43, 0x2e, 0x5f, 0x39, 0x35, 0x98, 0x59, 0x39,
  0x91, 0xf8, 0x81, 0x39, 0x51, 0xe1, 0x1f, 0x39, 0xb7, 0x3c, 0x45, 0x39,
  0xc1, 0x69, 0x92, 0x39, 0x44, 0x30, 0x92, 0x39, 0x2a, 0xf9, 0x30, 0x39,
  0xd6, 0x7a, 0x90, 0x39, 0x42, 0x66, 0x58, 0x39, 0xe2, 0x67, 0x51, 0x39,
  0x39, 0x47, 0x76, 0x39, 0x04, 0xc4, 0x67, 0x39, 0x51, 0x7d, 0x3b, 0x39,
  0x78, 0x78, 0x4f, 0x39, 0xc5, 0x16, 0x5b, 0x39, 0xad, 0x00, 0x88, 0x39,
  0x2a, 0x00, 0x00, 0x00, 0x73, 0x65, 0x71, 0x75, 0x65, 0x6e, 0x74, 0x69,
  0x61, 0x6c, 0x2f, 0x63, 0x6f, 0x6e, 0x76, 0x31, 0x64, 0x5f, 0x32, 0x2f,
  0x42, 0x69, 0x61, 0x73, 0x41, 0x64, 0x64, 0x2f, 0x52, 0x65, 0x61, 0x64,
  0x56, 0x61, 0x72, 0x69, 0x61, 0x62, 0x6c, 0x65, 0x4f, 0x70, 0x00, 0x00,
  0x01, 0x00, 0x00, 0x00, 0x18, 0x00, 0x00, 0x00, 0xe2, 0xfc, 0xff, 0xff,
  0x00, 0x00, 0x00, 0x01, 0x14, 0x00, 0x00, 0x00, 0x30, 0x00, 0x00, 0x00,
  0x0a, 0x00, 0x00, 0x00, 0x00, 0x00, 0x00, 0x09, 0x44, 0x00, 0x00, 0x00,
  0xcc, 0xfc, 0xff, 0xff, 0x08, 0x00, 0x00, 0x00, 0x10, 0x00, 0x00, 0x00,
  0x01, 0x00, 0x00, 0x00, 0x00, 0x00, 0x00, 0x00, 0x00, 0x00, 0x00, 0x00,
  0x01, 0x00, 0x00, 0x00, 0xce, 0xec, 0xe3, 0x3b, 0x18, 0x00, 0x00, 0x00,
  0x73, 0x65, 0x71, 0x75, 0x65, 0x6e, 0x74, 0x69, 0x61, 0x6c, 0x2f, 0x79,
  0x5f, 0x70, 0x72, 0x65, 0x64, 0x2f, 0x4d, 0x61, 0x74, 0x4d, 0x75, 0x6c,
  0x00, 0x00, 0x00, 0x00, 0x02, 0x00, 0x00, 0x00, 0x06, 0x00, 0x00, 0x00,
  0xa8, 0x00, 0x00, 0x00, 0x4a, 0xfd, 0xff, 0xff, 0x00, 0x00, 0x00, 0x01,
  0x14, 0x00, 0x00, 0x00, 0x34, 0x00, 0x00, 0x00, 0x09, 0x00, 0x00, 0x00,
  0x00, 0x00, 0x00, 0x02, 0x58, 0x00, 0x00, 0x00, 0x34, 0xfd, 0xff, 0xff,
  0x08, 0x00, 0x00, 0x00, 0x14, 0x00, 0x00, 0x00, 0x01, 0x00, 0x00, 0x00,
  0x00, 0x00, 0x00, 0x00, 0x00, 0x00, 0x00, 0x00, 0x00, 0x00, 0x00, 0x00,
  0x01, 0x00, 0x00, 0x00, 0x91, 0x20, 0xc3, 0x39, 0x28, 0x00, 0x00, 0x00,
  0x73, 0x65, 0x71, 0x75, 0x65, 0x6e, 0x74, 0x69, 0x61, 0x6c, 0x2f, 0x79,
  0x5f, 0x70, 0x72, 0x65, 0x64, 0x2f, 0x42, 0x69, 0x61, 0x73, 0x41, 0x64,
  0x64, 0x2f, 0x52, 0x65, 0x61, 0x64, 0x56, 0x61, 0x72, 0x69, 0x61, 0x62,
  0x6c, 0x65, 0x4f, 0x70, 0x00, 0x00, 0x00, 0x00, 0x01, 0x00, 0x00, 0x00,
  0x06, 0x00, 0x00, 0x00, 0xc2, 0xfd, 0xff, 0xff, 0x00, 0x00, 0x00, 0x01,
  0x14, 0x00, 0x00, 0x00, 0x14, 0x00, 0x00, 0x00, 0x08, 0x00, 0x00, 0x00,
  0x00, 0x00, 0x00, 0x02, 0x28, 0x00, 0x00, 0x00, 0x18, 0xfe, 0xff, 0xff,
  0x18, 0x00, 0x00, 0x00, 0x73, 0x65, 0x71, 0x75, 0x65, 0x6e, 0x74, 0x69,
  0x61, 0x6c, 0x2f, 0x66, 0x6c, 0x61, 0x74, 0x74, 0x65, 0x6e, 0x2f, 0x43,
  0x6f, 0x6e, 0x73, 0x74, 0x00, 0x00, 0x00, 0x00, 0x01, 0x00, 0x00, 0x00,
  0x02, 0x00, 0x00, 0x00, 0x0a, 0xfe, 0xff, 0xff, 0x00, 0x00, 0x00, 0x01,
  0x14, 0x00, 0x00, 0x00, 0x14, 0x00, 0x00, 0x00, 0x07, 0x00, 0x00, 0x00,
  0x00, 0x00, 0x00, 0x02, 0x34, 0x00, 0x00, 0x00, 0x60, 0xfe, 0xff, 0xff,
  0x25, 0x00, 0x00, 0x00, 0x73, 0x65, 0x71, 0x75, 0x65, 0x6e, 0x74, 0x69,
  0x61, 0x6c, 0x2f, 0x6d, 0x61, 0x78, 0x5f, 0x70, 0x6f, 0x6f, 0x6c, 0x69,
  0x6e, 0x67, 0x31, 0x64, 0x5f, 0x32, 0x2f, 0x45, 0x78, 0x70, 0x61, 0x6e,
  0x64, 0x44, 0x69, 0x6d, 0x73, 0x00, 0x00, 0x00, 0x01, 0x00, 0x00, 0x00,
  0x04, 0x00, 0x00, 0x00, 0x5e, 0xfe, 0xff, 0xff, 0x00, 0x00, 0x00, 0x01,
  0x14, 0x00, 0x00, 0x00, 0x14, 0x00, 0x00, 0x00, 0x06, 0x00, 0x00, 0x00,
  0x00, 0x00, 0x00, 0x02, 0x34, 0x00, 0x00, 0x00, 0xb4, 0xfe, 0xff, 0xff,
  0x25, 0x00, 0x00, 0x00, 0x73, 0x65, 0x71, 0x75, 0x65, 0x6e, 0x74, 0x69,
  0x61, 0x6c, 0x2f, 0x63, 0x6f, 0x6e, 0x76, 0x31, 0x64, 0x5f, 0x32, 0x2f,
  0x43, 0x6f, 0x6e, 0x76, 0x31, 0x44, 0x2f, 0x45, 0x78, 0x70, 0x61, 0x6e,
  0x64, 0x44, 0x69, 0x6d, 0x73, 0x00, 0x00, 0x00, 0x01, 0x00, 0x00, 0x00,
  0x04, 0x00, 0x00, 0x00, 0xb2, 0xfe, 0xff, 0xff, 0x00, 0x00, 0x00, 0x01,
  0x14, 0x00, 0x00, 0x00, 0x14, 0x00, 0x00, 0x00, 0x05, 0x00, 0x00, 0x00,
  0x00, 0x00, 0x00, 0x02, 0x34, 0x00, 0x00, 0x00, 0x08, 0xff, 0xff, 0xff,
  0x25, 0x00, 0x00, 0x00, 0x73, 0x65, 0x71, 0x75, 0x65, 0x6e, 0x74, 0x69,
  0x61, 0x6c, 0x2f, 0x6d, 0x61, 0x78, 0x5f, 0x70, 0x6f, 0x6f, 0x6c, 0x69,
  0x6e, 0x67, 0x31, 0x64, 0x5f, 0x31, 0x2f, 0x45, 0x78, 0x70, 0x61, 0x6e,
  0x64, 0x44, 0x69, 0x6d, 0x73, 0x00, 0x00, 0x00, 0x01, 0x00, 0x00, 0x00,
  0x04, 0x00, 0x00, 0x00, 0x06, 0xff, 0xff, 0xff, 0x00, 0x00, 0x00, 0x01,
  0x14, 0x00, 0x00, 0x00, 0x14, 0x00, 0x00, 0x00, 0x04, 0x00, 0x00, 0x00,
  0x00, 0x00, 0x00, 0x02, 0x34, 0x00, 0x00, 0x00, 0x5c, 0xff, 0xff, 0xff,
  0x25, 0x00, 0x00, 0x00, 0x73, 0x65, 0x71, 0x75, 0x65, 0x6e, 0x74, 0x69,
  0x61, 0x6c, 0x2f, 0x63, 0x6f, 0x6e, 0x76, 0x31, 0x64, 0x5f, 0x31, 0x2f,
  0x43, 0x6f, 0x6e, 0x76, 0x31, 0x44, 0x2f, 0x45, 0x78, 0x70, 0x61, 0x6e,
  0x64, 0x44, 0x69, 0x6d, 0x73, 0x00, 0x00, 0x00, 0x01, 0x00, 0x00, 0x00,
  0x04, 0x00, 0x00, 0x00, 0x5a, 0xff, 0xff, 0xff, 0x00, 0x00, 0x00, 0x01,
  0x14, 0x00, 0x00, 0x00, 0x14, 0x00, 0x00, 0x00, 0x03, 0x00, 0x00, 0x00,
  0x00, 0x00, 0x00, 0x02, 0x30, 0x00, 0x00, 0x00, 0xb0, 0xff, 0xff, 0xff,
  0x23, 0x00, 0x00, 0x00, 0x73, 0x65, 0x71, 0x75, 0x65, 0x6e, 0x74, 0x69,
  0x61, 0x6c, 0x2f, 0x6d, 0x61, 0x78, 0x5f, 0x70, 0x6f, 0x6f, 0x6c, 0x69,
  0x6e, 0x67, 0x31, 0x64, 0x2f, 0x45, 0x78, 0x70, 0x61, 0x6e, 0x64, 0x44,
  0x69, 0x6d, 0x73, 0x00, 0x01, 0x00, 0x00, 0x00, 0x04, 0x00, 0x00, 0x00,
  0xaa, 0xff, 0xff, 0xff, 0x00, 0x00, 0x00, 0x01, 0x18, 0x00, 0x00, 0x00,
  0x18, 0x00, 0x00, 0x00, 0x02, 0x00, 0x00, 0x00, 0x00, 0x00, 0x00, 0x02,
  0x34, 0x00, 0x00, 0x00, 0x04, 0x00, 0x04, 0x00, 0x04, 0x00, 0x00, 0x00,
  0x23, 0x00, 0x00, 0x00, 0x73, 0x65, 0x71, 0x75, 0x65, 0x6e, 0x74, 0x69,
  0x61, 0x6c, 0x2f, 0x63, 0x6f, 0x6e, 0x76, 0x31, 0x64, 0x2f, 0x43, 0x6f,
  0x6e, 0x76, 0x31, 0x44, 0x2f, 0x45, 0x78, 0x70, 0x61, 0x6e, 0x64, 0x44,
  0x69, 0x6d, 0x73, 0x00, 0x01, 0x00, 0x00, 0x00, 0x04, 0x00, 0x00, 0x00,
  0x00, 0x00, 0x16, 0x00, 0x1c, 0x00, 0x18, 0x00, 0x17, 0x00, 0x10, 0x00,
  0x0c, 0x00, 0x08, 0x00, 0x00, 0x00, 0x00, 0x00, 0x00, 0x00, 0x07, 0x00,
  0x16, 0x00, 0x00, 0x00, 0x00, 0x00, 0x00, 0x01, 0x20, 0x00, 0x00, 0x00,
  0x3c, 0x00, 0x00, 0x00, 0x01, 0x00, 0x00, 0x00, 0x00, 0x00, 0x00, 0x09,
  0x48, 0x00, 0x00, 0x00, 0x0c, 0x00, 0x0c, 0x00, 0x00, 0x00, 0x00, 0x00,
  0x08, 0x00, 0x04, 0x00, 0x0c, 0x00, 0x00, 0x00, 0x08, 0x00, 0x00, 0x00,
  0x10, 0x00, 0x00, 0x00, 0x01, 0x00, 0x00, 0x00, 0xf7, 0xff, 0xff, 0xff,
  0xff, 0xff, 0xff, 0xff, 0x01, 0x00, 0x00, 0x00, 0xc3, 0x90, 0x2e, 0x3d,
  0x13, 0x00, 0x00, 0x00, 0x73, 0x65, 0x72, 0x76, 0x69, 0x6e, 0x67, 0x5f,
  0x64, 0x65, 0x66, 0x61, 0x75, 0x6c, 0x74, 0x5f, 0x78, 0x3a, 0x30, 0x00,
  0x02, 0x00, 0x00, 0x00, 0x01, 0x00, 0x00, 0x00, 0x8a, 0x02, 0x00, 0x00,
  0x05, 0x00, 0x00, 0x00, 0x6c, 0x00, 0x00, 0x00, 0x4c, 0x00, 0x00, 0x00,
  0x2c, 0x00, 0x00, 0x00, 0x18, 0x00, 0x00, 0x00, 0x04, 0x00, 0x00, 0x00,
  0xd0, 0xff, 0xff, 0xff, 0x19, 0x00, 0x00, 0x00, 0x02, 0x00, 0x00, 0x00,
  0x00, 0x00, 0x00, 0x19, 0xe0, 0xff, 0xff, 0xff, 0x09, 0x00, 0x00, 0x00,
  0x04, 0x00, 0x00, 0x00, 0x00, 0x00, 0x00, 0x09, 0xf0, 0xff, 0xff, 0xff,
  0x11, 0x00, 0x00, 0x00, 0x02, 0x00, 0x00, 0x00, 0x00, 0x00, 0x00, 0x11,
  0x0c, 0x00, 0x10, 0x00, 0x0f, 0x00, 0x00, 0x00, 0x08, 0x00, 0x04, 0x00,
  0x0c, 0x00, 0x00, 0x00, 0x03, 0x00, 0x00, 0x00, 0x03, 0x00, 0x00, 0x00,
  0x00, 0x00, 0x00, 0x03, 0x0c, 0x00, 0x0c, 0x00, 0x0b, 0x00, 0x00, 0x00,
  0x00, 0x00, 0x04, 0x00, 0x0c, 0x00, 0x00, 0x00, 0x16, 0x00, 0x00, 0x00,
  0x00, 0x00, 0x00, 0x16
};
unsigned int tflite_learn_14_len = 10984;
#endif // _EI_CLASSIFIER_TFLITE_LEARN_14_H_
